{
  "version": "1.0",
  "truncation": null,
  "padding": null,
  "added_tokens": [
    {
      "id": 0,
      "content": "<pad>",
      "single_word": false,
      "lstrip": false,
      "rstrip": false,
      "normalized": false,
      "special": true
    },
    {
      "id": 1,
      "content": "<|im_start|>",
      "single_word": false,
      "lstrip": false,
      "rstrip": false,
      "normalized": false,
      "special": true
    },
    {
      "id": 2,
      "content": "<|im_end|>",
      "single_word": false,
      "lstrip": false,
      "rstrip": false,
      "normalized": false,
      "special": true
    }
  ],
  "normalizer": null,
  "pre_tokenizer": {
    "type": "ByteLevel",
    "add_prefix_space": false,
    "trim_offsets": true,
    "use_regex": true
  },
  "post_processor": {
    "type": "ByteLevel",
    "add_prefix_space": true,
    "trim_offsets": false,
    "use_regex": true
  },
  "decoder": {
    "type": "ByteLevel",
    "add_prefix_space": true,
    "trim_offsets": true,
    "use_regex": true
  },
  "model": {
    "type": "BPE",
    "dropout": null,
    "unk_token": null,
    "continuing_subword_prefix": null,
    "end_of_word_suffix": null,
    "fuse_unk": false,
    "byte_fallback": false,
    "ignore_merges": false,
    "vocab": {
      "<pad>": 0,
      "<|im_start|>": 1,
      "<|im_end|>": 2,
      "'": 3,
      ",": 4,
      ".": 5,
      "2": 6,
      "3": 7,
      "4": 8,
      "<": 9,
      ">": 10,
      "M": 11,
      "O": 12,
      "_": 13,
      "a": 14,
      "b": 15,
      "c": 16,
      "d": 17,
      "e": 18,
      "f": 19,
      "g": 20,
      "h": 21,
      "i": 22,
      "j": 23,
      "k": 24,
      "l": 25,
      "m": 26,
      "n": 27,
      "o": 28,
      "p": 29,
      "q": 30,
      "r": 31,
      "s": 32,
      "t": 33,
      "u": 34,
      "v": 35,
      "w": 36,
      "x": 37,
      "y": 38,
      "z": 39,
      "|": 40,
      "Ċ": 41,
      "Ġ": 42,
      "im": 43,
      "<|": 44,
      "|>": 45,
      "st": 46,
      "sta": 47,
      "nd": 48,
      "Ġi": 49,
      "Ġt": 50,
      "rt": 51,
      "end": 52,
      "start": 53,
      "er": 54,
      "Ġa": 55,
      "Ġth": 56,
      "ou": 57,
      "Ġm": 58,
      "nt": 59,
      "as": 60,
      "Ġthe": 61,
      "Ġf": 62,
      "Ġs": 63,
      "us": 64,
      "re": 65,
      "si": 66,
      "in": 67,
      "Ġw": 68,
      "stant": 69,
      "assi": 70,
      ".<|": 71,
      "user": 72,
      "assistant": 73,
      "Ġn": 74,
      "on": 75,
      "Ġl": 76,
      "at": 77,
      "you": 78,
      "Ġd": 79,
      "Ġis": 80,
      "Ġyou": 81,
      "ot": 82,
      "om": 83,
      "ing": 84,
      "Ġit": 85,
      "ed": 86,
      "Ġc": 87,
      "Ġb": 88,
      "or": 89,
      "Ġnot": 90,
      "Ġh": 91,
      "al": 92,
      "le": 93,
      "Ġp": 94,
      "ly": 95,
      "Ġdo": 96,
      "Ġla": 97,
      "Ġon": 98,
      "Ġme": 99,
      "Ġto": 100,
      "Ġmom": 101,
      "ll": 102,
      "Ġo": 103,
      "und": 104,
      "Ġand": 105,
      "an": 106,
      "ar": 107,
      "oo": 108,
      "ow": 109,
      "en": 110,
      "un": 111,
      "ve": 112,
      "Ġare": 113,
      "Ġwi": 114,
      "Ġfor": 115,
      "Ġthat": 116,
      "Ġg": 117,
      "ry": 118,
      "id": 119,
      "am": 120,
      "Ġam": 121,
      "est": 122,
      "hat": 123,
      "Ġmy": 124,
      "Ġlaund": 125,
      "Ġlaundry": 126,
      "Ġe": 127,
      "una": 128,
      "Ġtuna": 129,
      "th": 130,
      "se": 131,
      "Ġsc": 132,
      "ay": 133,
      "Ġso": 134,
      "ver": 135,
      "es": 136,
      "Ġfe": 137,
      "loo": 138,
      "ur": 139,
      "Ġof": 140,
      "et": 141,
      "Ġat": 142,
      "Ġwill": 143,
      "Ġsa": 144,
      "ch": 145,
      "Ġli": 146,
      "Ġne": 147,
      "ce": 148,
      "Ġha": 149,
      "ine": 150,
      "Ġwas": 151,
      "ream": 152,
      "Ġyour": 153,
      "it": 154,
      "ck": 155,
      "look": 156,
      "Ġsaid": 157,
      "what": 158,
      "Ġin": 159,
      "li": 160,
      "ore": 161,
      "Ġnow": 162,
      "are": 163,
      "ere": 164,
      "ok": 165,
      "Ġwh": 166,
      "alk": 167,
      "Ġbe": 168,
      "Ġfeed": 169,
      "Ġscream": 170,
      "Ġdi": 171,
      "out": 172,
      "ab": 173,
      "ion": 174,
      "ny": 175,
      "sten": 176,
      "hon": 177,
      "Ġtalk": 178,
      "real": 179,
      "Ġhave": 180,
      "do": 181,
      "Ġre": 182,
      "fine": 183,
      "listen": 184,
      "estly": 185,
      "honestly": 186,
      "under": 187,
      "Ġunder": 188,
      "is": 189,
      "Ġfr": 190,
      "Ġsh": 191,
      "um": 192,
      "ove": 193,
      "qu": 194,
      "Ġpi": 195,
      "ge": 196,
      "wh": 197,
      "ome": 198,
      "stand": 199,
      "ose": 200,
      "Ġu": 201,
      "able": 202,
      "ke": 203,
      "ood": 204,
      "ell": 205,
      "iou": 206,
      "ious": 207,
      "rty": 208,
      "arm": 209,
      "gh": 210,
      "Ġunderstand": 211,
      "Ġch": 212,
      "Ġfur": 213,
      "Ġwhat": 214,
      "Ġwith": 215,
      "Ġdirty": 216,
      "Ġcl": 217,
      "Ġwarm": 218,
      "Ġfrom": 219,
      "ap": 220,
      "ec": 221,
      "Ġr": 222,
      "Ġob": 223,
      "ant": 224,
      "got": 225,
      "Ġwash": 226,
      "Ġqu": 227,
      "oth": 228,
      "atch": 229,
      "Ġcan": 230,
      "ust": 231,
      "Ġonly": 232,
      "one": 233,
      "ff": 234,
      "Ġfore": 235,
      "Ġforever": 236,
      "iously": 237,
      "Ġpile": 238,
      "Ġunderstands": 239,
      "Ġlove": 240,
      "Ġmo": 241,
      "Ġthen": 242,
      "viously": 243,
      "Ġobviously": 244,
      "Ġter": 245,
      "Ġthose": 246,
      "ld": 247,
      "pt": 248,
      "Ġfin": 249,
      "Ġfinal": 250,
      "estion": 251,
      "Ġquestion": 252,
      "ght": 253,
      "ms": 254,
      "Ġterms": 255,
      "iable": 256,
      "Ġnegot": 257,
      "Ġnegotiable": 258,
      "ring": 259,
      "Ġlaw": 260,
      "ut": 261,
      "Ġsta": 262,
      "why": 263,
      "Ġcat": 264,
      "bout": 265,
      "Ġabout": 266,
      "ri": 267,
      "Ġk": 268,
      "ep": 269,
      "Ġup": 270,
      "Ġlaz": 271,
      "Ġj": 272,
      "Ġpa": 273,
      "Ġnap": 274,
      "Ġst": 275,
      "Ġbi": 276,
      "Ġac": 277,
      "ft": 278,
      "ent": 279,
      "Ġfood": 280,
      "Ġlike": 281,
      "Ġor": 282,
      "ad": 283,
      "Ġone": 284,
      "Ġany": 285,
      "ro": 286,
      "ic": 287,
      "Ġwho": 288,
      "Ġtim": 289,
      "Ġdid": 290,
      "leep": 291,
      "Ġlazy": 292,
      "very": 293,
      "ound": 294,
      "use": 295,
      "thing": 296,
      "Ġwatch": 297,
      "Ġkn": 298,
      "Ġout": 299,
      "onny": 300,
      "Ġle": 301,
      "Ġsonny": 302,
      "Ġhou": 303,
      "Ġoff": 304,
      "oud": 305,
      "all": 306,
      "Ġan": 307,
      "Ġno": 308,
      "Ġhere": 309,
      "Ġhe": 310,
      "Ġthis": 311,
      "gn": 312,
      "Ġgo": 313,
      "the": 314,
      "Ġy": 315,
      "cept": 316,
      "Ġthing": 317,
      "nti": 318,
      "Ġex": 319,
      "owl": 320,
      "way": 321,
      "Ġloud": 322,
      "pp": 323,
      "Ġfloo": 324,
      "Ġfloof": 325,
      "ac": 326,
      "Ġsleep": 327,
      "Ġwant": 328,
      "Ġsome": 329,
      "ight": 330,
      "Ġper": 331,
      "Ġevery": 332,
      "Ġal": 333,
      "Ġall": 334,
      "Ġtoo": 335,
      "ox": 336,
      "Ġas": 337,
      "Ġdoor": 338,
      "Ġfa": 339,
      "Ġtime": 340,
      "Ġfl": 341,
      "Ġcloth": 342,
      "Ġclothes": 343,
      "Ġwe": 344,
      "Ġpl": 345,
      "reat": 346,
      "Ġfu": 347,
      "ame": 348,
      "ved": 349,
      "Ġpaw": 350,
      "ong": 351,
      "ase": 352,
      "Ġbox": 353,
      "wn": 354,
      "Ġbec": 355,
      "Ġv": 356,
      "Ġcle": 357,
      "Ġmost": 358,
      "Ġcou": 359,
      "Ġday": 360,
      "ange": 361,
      "hing": 362,
      "de": 363,
      "ally": 364,
      "Ġscreamed": 365,
      "ter": 366,
      "ect": 367,
      "ds": 368,
      "Ġget": 369,
      "ss": 370,
      "ath": 371,
      "Ġgr": 372,
      "Ġshed": 373,
      "we": 374,
      "uru": 375,
      "Ġdown": 376,
      "Ġop": 377,
      "Ġlie": 378,
      "em": 379,
      "Ġscreaming": 380,
      "ans": 381,
      "Ġbowl": 382,
      "Ġma": 383,
      "ate": 384,
      "op": 385,
      "Ġjust": 386,
      "ink": 387,
      "Ġopen": 388,
      "Ġmay": 389,
      "Ġus": 390,
      "Ġchuru": 391,
      "Ġcats": 392,
      "Ġwhole": 393,
      "Ġunti": 394,
      "Ġuntil": 395,
      "ain": 396,
      "Ġnothing": 397,
      "Ġsm": 398,
      "ise": 399,
      "Ġnear": 400,
      "Ġcon": 401,
      "Ġlong": 402,
      "Ġpur": 403,
      "Ġby": 404,
      "Ġhum": 405,
      "Ġwhen": 406,
      "Ġclean": 407,
      "Ġchase": 408,
      "ater": 409,
      "Ġdot": 410,
      "uum": 411,
      "acuum": 412,
      "Ġvacuum": 413,
      "Ġknow": 414,
      "ying": 415,
      "Ġnapp": 416,
      "ber": 417,
      "Ġtoy": 418,
      "Ġmin": 419,
      "Ġcom": 420,
      "be": 421,
      "Ġaccept": 422,
      "ack": 423,
      "ark": 424,
      "Ġstr": 425,
      "Ġfull": 426,
      "Ġhour": 427,
      "rds": 428,
      "Ġif": 429,
      "Ġhear": 430,
      "Ġatt": 431,
      "Ġign": 432,
      "ored": 433,
      "Ġbring": 434,
      "Ġpick": 435,
      "Ġpaws": 436,
      "Ġbet": 437,
      "Ġperf": 438,
      "uff": 439,
      "Ġshe": 440,
      "Ġwa": 441,
      "ead": 442,
      "Ġonce": 443,
      "ort": 444,
      "Ġear": 445,
      "ould": 446,
      "ock": 447,
      "Ġhas": 448,
      "ity": 449,
      "Ġbig": 450,
      "oor": 451,
      "Ġorange": 452,
      "ile": 453,
      "rge": 454,
      "Ġwor": 455,
      "Ġlarge": 456,
      "day": 457,
      "Ġun": 458,
      "ving": 459,
      "Ġsun": 460,
      "Ġpre": 461,
      "Ġbu": 462,
      "Ġfound": 463,
      "Ġscare": 464,
      "nto": 465,
      "want": 466,
      "Ġsn": 467,
      "Ġstaring": 468,
      "Ġsec": 469,
      "get": 470,
      "Ġsp": 471,
      "Ġdream": 472,
      "Ġtreat": 473,
      "Ġhuman": 474,
      "Ġtu": 475,
      "sp": 476,
      "Ġnever": 477,
      "Ġleft": 478,
      "Ġfi": 479,
      "Ġtr": 480,
      "Ġthere": 481,
      "Ġhouse": 482,
      "Ġdoes": 483,
      "Ġcar": 484,
      "any": 485,
      "Ġwater": 486,
      "Ġsit": 487,
      "Ġlying": 488,
      "Ġknock": 489,
      "Ġcouch": 490,
      "Ġgone": 491,
      "Ġmust": 492,
      "Ġag": 493,
      "Ġfloor": 494,
      "side": 495,
      "Ġmove": 496,
      "room": 497,
      "ond": 498,
      "where": 499,
      "Ġsecond": 500,
      "Ġtri": 501,
      "stop": 502,
      "Ġbirds": 503,
      "less": 504,
      "ger": 505,
      "Ġco": 506,
      "ory": 507,
      "Ġfear": 508,
      "Ġshow": 509,
      "hed": 510,
      "Ġname": 511,
      "pl": 512,
      "Ġmoved": 513,
      "Ġnight": 514,
      "Ġneed": 515,
      "oom": 516,
      "red": 517,
      "Ġwould": 518,
      "Ġyell": 519,
      "come": 520,
      "Ġact": 521,
      "Ġrem": 522,
      "ause": 523,
      "Ġbecause": 524,
      "ite": 525,
      "Ġgood": 526,
      "inch": 527,
      "Ġtw": 528,
      "Ġpo": 529,
      "Ġeff": 530,
      "ndow": 531,
      "Ġwindow": 532,
      "ir": 533,
      "Ġhair": 534,
      "Ġanything": 535,
      "Ġanyone": 536,
      "ways": 537,
      "Ġalways": 538,
      "Ġmostly": 539,
      "age": 540,
      "Ġperfect": 541,
      "Ġplay": 542,
      "other": 543,
      "Ġminut": 544,
      "ratch": 545,
      "Ġscratch": 546,
      "Ġlo": 547,
      "Ġpr": 548,
      "Ġthink": 549,
      "Ġfine": 550,
      "tle": 551,
      "Ġask": 552,
      "Ġloo": 553,
      "Ġlook": 554,
      "ket": 555,
      "Ġhapp": 556,
      "Ġar": 557,
      "Ġsing": 558,
      "Ġru": 559,
      "here": 560,
      "Ġ4": 561,
      "Ġgroom": 562,
      "your": 563,
      "orm": 564,
      "Ġnapped": 565,
      "Ġref": 566,
      "Ġdark": 567,
      "Ġwhile": 568,
      "ting": 569,
      "ention": 570,
      "Ġattention": 571,
      "Ġbut": 572,
      "Ġtreats": 573,
      "sed": 574,
      "el": 575,
      "usic": 576,
      "Ġdoing": 577,
      "ive": 578,
      "ud": 579,
      "art": 580,
      "up": 581,
      "Ġfluff": 582,
      "Ġfluffy": 583,
      "ned": 584,
      "Ġforget": 585,
      "Ġfast": 586,
      "Ġheard": 587,
      "ather": 588,
      "Ġput": 589,
      "Ġclo": 590,
      "Ġgrinch": 591,
      "Ġeat": 592,
      "vor": 593,
      "Ġfavor": 594,
      "Ġfavorite": 595,
      "usy": 596,
      "rier": 597,
      "Ġcarrier": 598,
      "Ġlap": 599,
      "Ġthings": 600,
      "Ġrun": 601,
      "ough": 602,
      "Ġpro": 603,
      "Ġsl": 604,
      "Ġthem": 605,
      "Ġeffort": 606,
      "ide": 607,
      "Ġfeeding": 608,
      "Ġsaw": 609,
      "ought": 610,
      "Ġfeeds": 611,
      "Ġagain": 612,
      "ember": 613,
      "eci": 614,
      "stead": 615,
      "Ġinstead": 616,
      "Ġapp": 617,
      "Ġappe": 618,
      "Ġdist": 619,
      "Ġtell": 620,
      "Ġred": 621,
      "ak": 622,
      "Ġem": 623,
      "ip": 624,
      "Ġsmell": 625,
      "nter": 626,
      "ild": 627,
      "tend": 628,
      "fe": 629,
      "iff": 630,
      "Ġacceptable": 631,
      "Ġsniff": 632,
      "Ġbed": 633,
      "Ġhours": 634,
      "ie": 635,
      "Ġrefuse": 636,
      "Ġbored": 637,
      "Ġused": 638,
      "ice": 639,
      "Ġtoday": 640,
      "Ġta": 641,
      "Ġsay": 642,
      "Ġmusic": 643,
      "let": 644,
      "Ġgot": 645,
      "Ġstared": 646,
      "ably": 647,
      "Ġfind": 648,
      "Ġlift": 649,
      "Ġthey": 650,
      "ence": 651,
      "ween": 652,
      "Ġbetween": 653,
      "Ġfurry": 654,
      "pose": 655,
      "Ġpurpose": 656,
      "ning": 657,
      "kes": 658,
      "Ġexcept": 659,
      "Ġfeet": 660,
      "Ġhome": 661,
      "ha": 662,
      "Ġde": 663,
      "ol": 664,
      "Ġbath": 665,
      "lse": 666,
      "tell": 667,
      "Ġelse": 668,
      "Ġhun": 669,
      "Ġopened": 670,
      "ance": 671,
      "Ġseconds": 672,
      "Ġwall": 673,
      "Ġsound": 674,
      "Ġscares": 675,
      "hi": 676,
      "Ġloudly": 677,
      "ee": 678,
      "how": 679,
      "Ġmat": 680,
      "Ġminutes": 681,
      "asket": 682,
      "Ġbasket": 683,
      "Ġtimes": 684,
      "Ġsomething": 685,
      "Ġpurring": 686,
      "Ġen": 687,
      "Ġtwo": 688,
      "Ġenough": 689,
      "erve": 690,
      "ick": 691,
      "ner": 692,
      "Ġfit": 693,
      "Ġplans": 694,
      "Ġmoving": 695,
      "Ġremember": 696,
      "Ġgl": 697,
      "Ġpart": 698,
      "con": 699,
      "Ġbeing": 700,
      "read": 701,
      "Ġesp": 702,
      "Ġalread": 703,
      "ecially": 704,
      "Ġespecially": 705,
      "Ġalready": 706,
      "ually": 707,
      "Ġmeant": 708,
      "ars": 709,
      "bell": 710,
      "Ġmean": 711,
      "umber": 712,
      "Ġdoorbell": 713,
      "did": 714,
      "Ġenti": 715,
      "Ġtru": 716,
      "Ġentire": 717,
      "Ġlea": 718,
      "sc": 719,
      "oke": 720,
      "cel": 721,
      "Ġsmells": 722,
      "Ġsi": 723,
      "Ġeverything": 724,
      "il": 725,
      "Ġbeen": 726,
      "Ġwalk": 727,
      "Ġnine": 728,
      "Ġperfectly": 729,
      "Ġpe": 730,
      "ding": 731,
      "Ġshedding": 732,
      "beam": 733,
      "Ġsunbeam": 734,
      "Ġnoise": 735,
      "Ġmake": 736,
      "Ġpretend": 737,
      "if": 738,
      "can": 739,
      "Ġasleep": 740,
      "Ġother": 741,
      "pled": 742,
      "Ġtube": 743,
      "Ġhi": 744,
      "Ġok": 745,
      "ump": 746,
      "Ġjump": 747,
      "Ġeveryone": 748,
      "eck": 749,
      "Ġknocked": 750,
      "nce": 751,
      "Ġhow": 752,
      "iend": 753,
      "Ġfriend": 754,
      "Ġignore": 755,
      "Ġbl": 756,
      "Ġsniffed": 757,
      "son": 758,
      "Ġperson": 759,
      "anger": 760,
      "Ġstranger": 761,
      "Ġgroomed": 762,
      "Ġnapping": 763,
      "Ġignored": 764,
      "tim": 765,
      "time": 766,
      "Ġcame": 767,
      "Ġwork": 768,
      "Ġyes": 769,
      "ball": 770,
      "Ġtoe": 771,
      "fts": 772,
      "Ġtufts": 773,
      "Ġhairball": 774,
      "imed": 775,
      "Ġbusy": 776,
      "Ġrug": 777,
      "Ġclose": 778,
      "Ġcomf": 779,
      "sion": 780,
      "ople": 781,
      "sh": 782,
      "ret": 783,
      "Ġonto": 784,
      "Ġfeel": 785,
      "mom": 786,
      "lf": 787,
      "ree": 788,
      "Ġsup": 789,
      "Ġsuper": 790,
      "that": 791,
      "Ġher": 792,
      "Ġpersonal": 793,
      "zz": 794,
      "Ġfuzz": 795,
      "der": 796,
      "Ġacro": 797,
      "Ġacross": 798,
      "oul": 799,
      "Ġsoul": 800,
      "ute": 801,
      "Ġanyway": 802,
      "Ġpost": 803,
      "Ġsmart": 804,
      "Ġwatching": 805,
      "vol": 806,
      "Ġinvol": 807,
      "Ġinvolved": 808,
      "Ġinto": 809,
      "Ġfall": 810,
      "Ġdead": 811,
      "Ġroom": 812,
      "Ġgra": 813,
      "Ġfo": 814,
      "vel": 815,
      "Ġyelling": 816,
      "ul": 817,
      "ra": 818,
      "Ġuse": 819,
      "Ġland": 820,
      "pty": 821,
      "Ġempty": 822,
      "rth": 823,
      "ard": 824,
      "Ġfloofy": 825,
      "Ġclosed": 826,
      "ment": 827,
      "Ġmine": 828,
      "Ġlit": 829,
      "Ġshare": 830,
      "Ġtrue": 831,
      "cy": 832,
      "Ġsomeone": 833,
      "rink": 834,
      "Ġten": 835,
      "Ġprob": 836,
      "af": 837,
      "zoom": 838,
      "Ġloaf": 839,
      "Ġhappy": 840,
      "Ġwhy": 841,
      "Ġoutside": 842,
      "ass": 843,
      "anis": 844,
      "Ġglass": 845,
      "ters": 846,
      "Ġmatters": 847,
      "iet": 848,
      "lp": 849,
      "Ġquiet": 850,
      "Ġhelp": 851,
      "Ġminim": 852,
      "Ġcome": 853,
      "our": 854,
      "Ġmany": 855,
      "Ġlife": 856,
      "ntly": 857,
      "Ġback": 858,
      "als": 859,
      "co": 860,
      "vity": 861,
      "Ġreco": 862,
      "Ġrecover": 863,
      "ze": 864,
      "Ġvery": 865,
      "Ġpet": 866,
      "ation": 867,
      "old": 868,
      "ottle": 869,
      "Ġbottle": 870,
      "Ġhold": 871,
      "Ġhood": 872,
      "Ġhoodie": 873,
      "iest": 874,
      "Ġsock": 875,
      "Ġsocks": 876,
      "Ġmeans": 877,
      "Ġnumber": 878,
      "Ġworn": 879,
      "was": 880,
      "Ġexcel": 881,
      "Ġwait": 882,
      "Ġmeaning": 883,
      "Ġappears": 884,
      "Ġearned": 885,
      "ire": 886,
      "say": 887,
      "fer": 888,
      "Ġprefer": 889,
      "Ġleave": 890,
      "Ġbetter": 891,
      "Ġgreat": 892,
      "urb": 893,
      "Ġdisturb": 894,
      "pic": 895,
      "Ġchild": 896,
      "aser": 897,
      "Ġlaser": 898,
      "uest": 899,
      "Ġzoom": 900,
      "Ġguest": 901,
      "Ġshi": 902,
      "rving": 903,
      "Ġstarving": 904,
      "spect": 905,
      "ello": 906,
      "Ġexha": 907,
      "Ġexhaust": 908,
      "Ġstick": 909,
      "Ġbought": 910,
      "ag": 911,
      "Ġbag": 912,
      "ened": 913,
      "Ġhappened": 914,
      "my": 915,
      "Ġforgot": 916,
      "Ġsnack": 917,
      "oring": 918,
      "Ġthan": 919,
      "Ġtoys": 920,
      "Ġscratching": 921,
      "play": 922,
      "udg": 923,
      "pped": 924,
      "ule": 925,
      "Ġsle": 926,
      "Ġsched": 927,
      "Ġslept": 928,
      "Ġschedule": 929,
      "Ġcomfy": 930,
      "Ġover": 931,
      "aimed": 932,
      "Ġdro": 933,
      "Ġclaimed": 934,
      "Ġcoming": 935,
      "hh": 936,
      "alm": 937,
      "Ġbrings": 938,
      "gnif": 939,
      "Ġmagnif": 940,
      "Ġmagnifice": 941,
      "pe": 942,
      "Ġtv": 943,
      "Ġtoes": 944,
      "Ġstorm": 945,
      "Ġyowl": 946,
      "Ġyowling": 947,
      "light": 948,
      "reen": 949,
      "Ġscreen": 950,
      "Ġbuy": 951,
      "anything": 952,
      "Ġforgetting": 953,
      "Ġthought": 954,
      "Ġperform": 955,
      "ig": 956,
      "Ġcold": 957,
      "there": 958,
      "Ġtake": 959,
      "Ġtou": 960,
      "Ġunless": 961,
      "Ġtouch": 962,
      "ating": 963,
      "gry": 964,
      "Ġconsi": 965,
      "Ġhungry": 966,
      "good": 967,
      "serve": 968,
      "Ġobserve": 969,
      "Ġhears": 970,
      "Ġweather": 971,
      "ray": 972,
      "Ġmis": 973,
      "Ġmissed": 974,
      "ience": 975,
      "Ġscience": 976,
      "ful": 977,
      "Ġbel": 978,
      "lt": 979,
      "Ġsile": 980,
      "Ġfelt": 981,
      "Ġslow": 982,
      "esi": 983,
      "mesi": 984,
      "Ġnemesi": 985,
      "ateg": 986,
      "Ġstrateg": 987,
      "Ġtries": 988,
      "Ġrude": 989,
      "Ġnemesis": 990,
      "Ġnice": 991,
      "Ġlist": 992,
      "Ġwakes": 993,
      "stantly": 994,
      "Ġconstantly": 995,
      "gret": 996,
      "Ġsee": 997,
      "Ġregret": 998,
      "arkably": 999,
      "Ġremarkably": 1000,
      "lcome": 1001,
      "Ġwelcome": 1002,
      "Ġboth": 1003,
      "oop": 1004,
      "Ġscoop": 1005,
      "Ġfearless": 1006,
      "ior": 1007,
      "Ġmeow": 1008,
      "aring": 1009,
      "Ġdreaming": 1010,
      "Ġdeli": 1011,
      "Ġchat": 1012,
      "Ġanother": 1013,
      "ey": 1014,
      "sw": 1015,
      "Ġdec": 1016,
      "edge": 1017,
      "Ġansw": 1018,
      "Ġclever": 1019,
      "Ġdecide": 1020,
      "Ġanswer": 1021,
      "Ġprobably": 1022,
      "and": 1023,
      "Ġthree": 1024,
      "Ġdem": 1025,
      "Ġneeds": 1026,
      "Ġdemand": 1027,
      "Ġve": 1028,
      "Ġlater": 1029,
      "Ġrunning": 1030,
      "Ġvet": 1031,
      "Ġstand": 1032,
      "Ġcheck": 1033,
      "vise": 1034,
      "Ġthr": 1035,
      "Ġsupervise": 1036,
      "part": 1037,
      "Ġapart": 1038,
      "inner": 1039,
      "Ġdinner": 1040,
      "orning": 1041,
      "Ġforty": 1042,
      "Ġapartment": 1043,
      "Ġcur": 1044,
      "ich": 1045,
      "Ġliqu": 1046,
      "Ġwhich": 1047,
      "Ġpicked": 1048,
      "Ġtax": 1049,
      "Ġsays": 1050,
      "Ġliquid": 1051,
      "ren": 1052,
      "Ġbehi": 1053,
      "umb": 1054,
      "Ġrumb": 1055,
      "Ġclos": 1056,
      "Ġbehind": 1057,
      "Ġrain": 1058,
      "Ġexac": 1059,
      "Ġcount": 1060,
      "Ġexact": 1061,
      "fore": 1062,
      "Ġmore": 1063,
      "itch": 1064,
      "Ġorder": 1065,
      "Ġtwitch": 1066,
      "Ġrele": 1067,
      "Ġeverywhere": 1068,
      "Ġcounter": 1069,
      "self": 1070,
      "Ġjo": 1071,
      "ies": 1072,
      "uis": 1073,
      "inguis": 1074,
      "Ġstaying": 1075,
      "ici": 1076,
      "Ġbecome": 1077,
      "Ġknows": 1078,
      "Ġdistinguis": 1079,
      "Ġdistinguished": 1080,
      "ward": 1081,
      "ids": 1082,
      "Ġkids": 1083,
      "bi": 1084,
      "Ġmad": 1085,
      "Ġfuzzy": 1086,
      "birds": 1087,
      "Ġmade": 1088,
      "gest": 1089,
      "reet": 1090,
      "Ġnam": 1091,
      "Ġdrink": 1092,
      "Ġgreet": 1093,
      "Ġconse": 1094,
      "Ġbiggest": 1095,
      "fen": 1096,
      "Ġke": 1097,
      "Ġmech": 1098,
      "Ġever": 1099,
      "ared": 1100,
      "Ġrest": 1101,
      "Ġwake": 1102,
      "Ġtripled": 1103,
      "Ġappeared": 1104,
      "Ġdefen": 1105,
      "Ġsize": 1106,
      "anism": 1107,
      "Ġmechanism": 1108,
      "Ġdefense": 1109,
      "ef": 1110,
      "ek": 1111,
      "mit": 1112,
      "Ġbri": 1113,
      "Ġweek": 1114,
      "Ġbecame": 1115,
      "efly": 1116,
      "Ġbriefly": 1117,
      "Ġpack": 1118,
      "rd": 1119,
      "Ġold": 1120,
      "ested": 1121,
      "Ġbird": 1122,
      "found": 1123,
      "ler": 1124,
      "ines": 1125,
      "Ġtoler": 1126,
      "Ġlazines": 1127,
      "Ġbirth": 1128,
      "Ġhumans": 1129,
      "Ġprofound": 1130,
      "Ġtolerate": 1131,
      "Ġlaziness": 1132,
      "Ġbirthday": 1133,
      "nit": 1134,
      "ure": 1135,
      "Ġint": 1136,
      "Ġfre": 1137,
      "Ġfurnit": 1138,
      "Ġfresh": 1139,
      "Ġfurniture": 1140,
      "Ġwort": 1141,
      "see": 1142,
      "Ġgoals": 1143,
      "Ġopens": 1144,
      "Ġminimal": 1145,
      "Ġworth": 1146,
      "Ġlate": 1147,
      "Ġusually": 1148,
      "Ġattack": 1149,
      "Ġears": 1150,
      "mory": 1151,
      "Ġwent": 1152,
      "Ġmemory": 1153,
      "ffect": 1154,
      "ffection": 1155,
      "Ġad": 1156,
      "ast": 1157,
      "fast": 1158,
      "reak": 1159,
      "Ġbreak": 1160,
      "rive": 1161,
      "Ġbreakfast": 1162,
      "bute": 1163,
      "Ġaway": 1164,
      "Ġfat": 1165,
      "Ġset": 1166,
      "Ġrange": 1167,
      "Ġgoing": 1168,
      "Ġtribute": 1169,
      "Ġlitter": 1170,
      "Ġinside": 1171,
      "Ġfright": 1172,
      "Ġactually": 1173,
      "Ġfrighten": 1174,
      "vac": 1175,
      "Ġend": 1176,
      "rivac": 1177,
      "Ġgravity": 1178,
      "rivacy": 1179,
      "fra": 1180,
      "Ġafra": 1181,
      "Ġtrust": 1182,
      "Ġafraid": 1183,
      "lent": 1184,
      "Ġrequ": 1185,
      "Ġcont": 1186,
      "Ġexcellent": 1187,
      "uch": 1188,
      "Ġmuch": 1189,
      "Ġbal": 1190,
      "cet": 1191,
      "ucet": 1192,
      "icip": 1193,
      "Ġlevel": 1194,
      "Ġfaucet": 1195,
      "Ġparticip": 1196,
      "Ġparticipation": 1197,
      "imp": 1198,
      "stance": 1199,
      "Ġdistance": 1200,
      "Ġwatcher": 1201,
      "Ġrunner": 1202,
      "Ġproud": 1203,
      "Ġstrangers": 1204,
      "ste": 1205,
      "Ġpaste": 1206,
      "Ġpeople": 1207,
      "ged": 1208,
      "ran": 1209,
      "Ġprove": 1210,
      "Ġarran": 1211,
      "Ġarranged": 1212,
      "far": 1213,
      "Ġhal": 1214,
      "Ġsafar": 1215,
      "Ġhalf": 1216,
      "Ġsafari": 1217,
      "Ġsqu": 1218,
      "Ġsquee": 1219,
      "who": 1220,
      "Ġslide": 1221,
      "Ġfriends": 1222,
      "Ġdign": 1223,
      "Ġloudest": 1224,
      "Ġdignity": 1225,
      "nip": 1226,
      "ouse": 1227,
      "Ġmouse": 1228,
      "Ġfeather": 1229,
      "Ġcatnip": 1230,
      "Ġwaited": 1231,
      "ace": 1232,
      "Ġmone": 1233,
      "Ġspent": 1234,
      "Ġhunger": 1235,
      "Ġmoney": 1236,
      "hello": 1237,
      "Ġhhh": 1238,
      "Ġinspect": 1239,
      "Ġhhhk": 1240,
      "ym": 1241,
      "Ġdam": 1242,
      "Ġgym": 1243,
      "gnage": 1244,
      "Ġunwas": 1245,
      "Ġsignage": 1246,
      "Ġshirt": 1247,
      "Ġdamage": 1248,
      "Ġunwashed": 1249,
      "treat": 1250,
      "Ġcap": 1251,
      "Ġhis": 1252,
      "Ġtowe": 1253,
      "Ġyours": 1254,
      "Ġretreat": 1255,
      "Ġhiss": 1256,
      "Ġtowel": 1257,
      "tuna": 1258,
      "Ġchildren": 1259,
      "cl": 1260,
      "ng": 1261,
      "Ġinter": 1262,
      "usive": 1263,
      "Ġincon": 1264,
      "Ġminute": 1265,
      "Ġlost": 1266,
      "Ġaround": 1267,
      "clusive": 1268,
      "Ġinterest": 1269,
      "Ġinconclusive": 1270,
      "Ġzoomies": 1271,
      "Ġconf": 1272,
      "ct": 1273,
      "Ġlick": 1274,
      "Ġwalked": 1275,
      "dle": 1276,
      "so": 1277,
      "Ġcud": 1278,
      "Ġcuddle": 1279,
      "wise": 1280,
      "Ġsus": 1281,
      "Ġserve": 1282,
      "Ġotherwise": 1283,
      "picious": 1284,
      "Ġsuspicious": 1285,
      "Ġserves": 1286,
      "aight": 1287,
      "per": 1288,
      "Ġham": 1289,
      "Ġsleeping": 1290,
      "Ġstraight": 1291,
      "Ġhamper": 1292,
      "unt": 1293,
      "Ġhunt": 1294,
      "tering": 1295,
      "Ġexhausting": 1296,
      "Ġchattering": 1297,
      "Ġhunting": 1298,
      "Ġaside": 1299,
      "Ġstep": 1300,
      "eil": 1301,
      "Ġtie": 1302,
      "Ġceil": 1303,
      "Ġbug": 1304,
      "Ġceiling": 1305,
      "Ġnew": 1306,
      "ipt": 1307,
      "nou": 1308,
      "rum": 1309,
      "Ġ2": 1310,
      "Ġcrum": 1311,
      "ceipt": 1312,
      "Ġreceipt": 1313,
      "Ġannou": 1314,
      "Ġbuild": 1315,
      "Ġcrumpled": 1316,
      "Ġannounce": 1317,
      "Ġbuilding": 1318,
      "Ġfly": 1319,
      "Ġage": 1320,
      "busy": 1321,
      "attle": 1322,
      "Ġprivacy": 1323,
      "anket": 1324,
      "Ġrattle": 1325,
      "Ġuncon": 1326,
      "scious": 1327,
      "Ġblanket": 1328,
      "Ġrattles": 1329,
      "Ġunconscious": 1330,
      "Ġaffection": 1331,
      "Ġleg": 1332,
      "Ġsticking": 1333,
      "Ġwhere": 1334,
      "ever": 1335,
      "Ġdust": 1336,
      "Ġspeck": 1337,
      "Ġmoth": 1338,
      "Ġsleepy": 1339,
      "Ġlooking": 1340,
      "rong": 1341,
      "Ġwrong": 1342,
      "Ġpuff": 1343,
      "Ġpuffed": 1344,
      "Ġlot": 1345,
      "tak": 1346,
      "taking": 1347,
      "Ġguests": 1348,
      "Ġjudg": 1349,
      "Ġjudging": 1350,
      "Ġwoke": 1351,
      "sm": 1352,
      "Ġdropped": 1353,
      "people": 1354,
      "Ġjumped": 1355,
      "Ġtook": 1356,
      "Ġwere": 1357,
      "more": 1358,
      "some": 1359,
      "Ġsalm": 1360,
      "someone": 1361,
      "Ġsalmon": 1362,
      "Ġraining": 1363,
      "Ġmagnificent": 1364,
      "Ġthinking": 1365,
      "ake": 1366,
      "dom": 1367,
      "ession": 1368,
      "lights": 1369,
      "Ġboring": 1370,
      "stig": 1371,
      "vestig": 1372,
      "Ġinvestig": 1373,
      "Ġinvestigating": 1374,
      "give": 1375,
      "Ġsat": 1376,
      "Ġignoring": 1377,
      "ushing": 1378,
      "Ġpushing": 1379,
      "warm": 1380,
      "Ġstory": 1381,
      "roke": 1382,
      "Ġbroke": 1383,
      "Ġhall": 1384,
      "ank": 1385,
      "Ġstage": 1386,
      "Ġperformance": 1387,
      "Ġhallway": 1388,
      "uss": 1389,
      "Ġdisc": 1390,
      "Ġdiscuss": 1391,
      "Ġtur": 1392,
      "Ġturned": 1393,
      "ghest": 1394,
      "Ġshelf": 1395,
      "Ġhighest": 1396,
      "Ġmar": 1397,
      "Ġcute": 1398,
      "Ġbeans": 1399,
      "Ġfuzziest": 1400,
      "Ġdeadly": 1401,
      "Ġsilent": 1402,
      "Ġmarvel": 1403,
      "playtime": 1404,
      "ceful": 1405,
      "Ġsniffing": 1406,
      "Ġgraceful": 1407,
      "ooth": 1408,
      "Ġlanding": 1409,
      "smooth": 1410,
      "tra": 1411,
      "Ġextra": 1412,
      "Ġsinging": 1413,
      "Ġsuperior": 1414,
      "Ġleap": 1415,
      "ift": 1416,
      "Ġfree": 1417,
      "Ġgive": 1418,
      "Ġgift": 1419,
      "Ġwearing": 1420,
      "Ġconsider": 1421,
      "Ġfreely": 1422,
      "nowl": 1423,
      "Ġack": 1424,
      "Ġmeowing": 1425,
      "nowledge": 1426,
      "Ġacknowledge": 1427,
      "box": 1428,
      "Ġlitterbox": 1429,
      "Ġspray": 1430,
      "Ġbelly": 1431,
      "Ġscooping": 1432,
      "noth": 1433,
      "Ġfan": 1434,
      "Ġball": 1435,
      "Ġwords": 1436,
      "Ġdemanding": 1437,
      "nothing": 1438,
      "Ġfancy": 1439,
      "Ġballad": 1440,
      "Ġeaten": 1441,
      "have": 1442,
      "Ġlittle": 1443,
      "Ġslowly": 1444,
      "'s": 1445,
      "ely": 1446,
      "eem": 1447,
      "plet": 1448,
      "Ġseem": 1449,
      "Ġwar": 1450,
      "Ġlimp": 1451,
      "omes": 1452,
      "ically": 1453,
      "Ġbecomes": 1454,
      "Ġcomplet": 1455,
      "Ġstrategy": 1456,
      "Ġstrategically": 1457,
      "Ġcurious": 1458,
      "Ġwarned": 1459,
      "Ġcompletely": 1460,
      "ourth": 1461,
      "Ġfourth": 1462,
      "Ġbetray": 1463,
      "Ġblink": 1464,
      "Ġbetrayal": 1465,
      "stent": 1466,
      "nds": 1467,
      "Ġheld": 1468,
      "Ġconsistent": 1469,
      "Ġdelivery": 1470,
      "Ġstrange": 1471,
      "ius": 1472,
      "oved": 1473,
      "enius": 1474,
      "Ġgenius": 1475,
      "Ġbeloved": 1476,
      "off": 1477,
      "Ġpound": 1478,
      "Ġfurious": 1479,
      "Ġallow": 1480,
      "Ġgets": 1481,
      "Ġlifted": 1482,
      "Ġholding": 1483,
      "Ġexactly": 1484,
      "Ġhalfway": 1485,
      "Ġpounds": 1486,
      "morning": 1487,
      "ney": 1488,
      "Ġepic": 1489,
      "Ġjour": 1490,
      "Ġjourney": 1491,
      "Ġdrive": 1492,
      "rived": 1493,
      "Ġarrived": 1494,
      "nate": 1495,
      "Ġsend": 1496,
      "Ġbefore": 1497,
      "Ġalter": 1498,
      "Ġboxes": 1499,
      "Ġgrab": 1500,
      "Ġsticky": 1501,
      "Ġtouched": 1502,
      "Ġalternate": 1503,
      "bo": 1504,
      "cip": 1505,
      "ybo": 1506,
      "ndat": 1507,
      "endance": 1508,
      "incip": 1509,
      "Ġdog": 1510,
      "Ġsoon": 1511,
      "Ġyourself": 1512,
      "Ġmandat": 1513,
      "Ġattendance": 1514,
      "Ġnightly": 1515,
      "Ġprincip": 1516,
      "Ġkeybo": 1517,
      "Ġmandatory": 1518,
      "Ġprinciple": 1519,
      "Ġkeyboard": 1520,
      "hey": 1521,
      "Ġpap": 1522,
      "llow": 1523,
      "Ġrather": 1524,
      "Ġspring": 1525,
      "aked": 1526,
      "Ġbathroom": 1527,
      "Ġpeaked": 1528,
      "Ġfollow": 1529,
      "Ġthrow": 1530,
      "Ġcloser": 1531,
      "Ġpacking": 1532,
      "Ġendless": 1533,
      "Ġpaper": 1534,
      "kin": 1535,
      "nel": 1536,
      "ndoor": 1537,
      "Ġindoor": 1538,
      "ntion": 1539,
      "Ġskin": 1540,
      "Ġyoung": 1541,
      "Ġmention": 1542,
      "annel": 1543,
      "arity": 1544,
      "Ġchannel": 1545,
      "Ġclock": 1546,
      "Ġclarity": 1547,
      "Ġgrudg": 1548,
      "Ġbowls": 1549,
      "Ġrumble": 1550,
      "Ġskinny": 1551,
      "Ġmentioning": 1552,
      "Ġgrudges": 1553,
      "ns": 1554,
      "vation": 1555,
      "wake": 1556,
      "Ġawake": 1557,
      "Ġfli": 1558,
      "Ġhid": 1559,
      "levation": 1560,
      "Ġmoment": 1561,
      "oose": 1562,
      "Ġelevation": 1563,
      "vers": 1564,
      "cked": 1565,
      "Ġchoose": 1566,
      "Ġwarmest": 1567,
      "Ġmakes": 1568,
      "Ġearns": 1569,
      "Ġsits": 1570,
      "Ġsitting": 1571,
      "Ġfits": 1572,
      "Ġleaving": 1573,
      "Ġdelivers": 1574,
      "Ġrelease": 1575,
      "Ġgreeted": 1576,
      "Ġconsent": 1577,
      "Ġflicked": 1578,
      "into": 1579,
      "ivity": 1580,
      "sy": 1581,
      "tem": 1582,
      "Ġstatem": 1583,
      "Ġoffici": 1584,
      "Ġnosy": 1585,
      "Ġconcept": 1586,
      "Ġearly": 1587,
      "Ġactivity": 1588,
      "Ġthrough": 1589,
      "Ġstatement": 1590,
      "Ġofficial": 1591,
      "ci": 1592,
      "drink": 1593,
      "ears": 1594,
      "wed": 1595,
      "Ġaimed": 1596,
      "attend": 1597,
      "Ġcare": 1598,
      "Ġbare": 1599,
      "Ġowed": 1600,
      "Ġcans": 1601,
      "Ġyears": 1602,
      "ained": 1603,
      "Ġunattend": 1604,
      "Ġpreci": 1605,
      "Ġtrained": 1606,
      "Ġminimum": 1607,
      "fully": 1608,
      "Ġjob": 1609,
      "Ġrequested": 1610,
      "Ġcarefully": 1611,
      "Ġunattended": 1612,
      "Ġprecision": 1613,
      "ced": 1614,
      "dest": 1615,
      "ill": 1616,
      "wat": 1617,
      "Ġswat": 1618,
      "anced": 1619,
      "Ġforward": 1620,
      "Ġsoft": 1621,
      "Ġfell": 1622,
      "Ġlive": 1623,
      "Ġmodest": 1624,
      "Ġkill": 1625,
      "Ġredire": 1626,
      "Ġhairballs": 1627,
      "Ġbalanced": 1628,
      "Ġkilled": 1629,
      "Ġredirect": 1630,
      "bid": 1631,
      "den": 1632,
      "ling": 1633,
      "rit": 1634,
      "rage": 1635,
      "story": 1636,
      "Ġath": 1637,
      "Ġmark": 1638,
      "ards": 1639,
      "Ġforbid": 1640,
      "Ġterrit": 1641,
      "Ġoutrage": 1642,
      "letic": 1643,
      "Ġhistory": 1644,
      "Ġfeeling": 1645,
      "Ġscooped": 1646,
      "Ġstandards": 1647,
      "Ġrumbling": 1648,
      "Ġathletic": 1649,
      "Ġforbidden": 1650,
      "Ġterritory": 1651,
      "back": 1652,
      "catch": 1653,
      "lit": 1654,
      "Ġside": 1655,
      "Ġfeedback": 1656,
      "ics": 1657,
      "Ġpurr": 1658,
      "Ġbigger": 1659,
      "Ġyells": 1660,
      "Ġactive": 1661,
      "Ġpolit": 1662,
      "Ġpersonality": 1663,
      "Ġtaxes": 1664,
      "Ġclosest": 1665,
      "Ġjoy": 1666,
      "Ġnames": 1667,
      "mitting": 1668,
      "Ġadmitting": 1669,
      "Ġpolitics": 1670,
      "ont": 1671,
      "ster": 1672,
      "Ġtin": 1673,
      "Ġtry": 1674,
      "Ġmon": 1675,
      "Ġmorning": 1676,
      "ased": 1677,
      "Ġlumber": 1678,
      "Ġtoward": 1679,
      "erent": 1680,
      "Ġdiff": 1681,
      "Ġfront": 1682,
      "ellig": 1683,
      "Ġplan": 1684,
      "Ġvanis": 1685,
      "Ġmagnificently": 1686,
      "Ġreleased": 1687,
      "Ġnamed": 1688,
      "Ġintellig": 1689,
      "Ġtiny": 1690,
      "Ġmonster": 1691,
      "Ġdifferent": 1692,
      "Ġvanish": 1693,
      "Ġintelligence": 1694,
      "MO": 1695,
      "des": 1696,
      "gen": 1697,
      "member": 1698,
      "opped": 1699,
      "ĠMO": 1700,
      "Ġtit": 1701,
      "erday": 1702,
      "ergen": 1703,
      "Ġfis": 1704,
      "Ġfour": 1705,
      "remember": 1706,
      "sides": 1707,
      "Ġdeci": 1708,
      "les": 1709,
      "Ġpatch": 1710,
      "esterday": 1711,
      "Ġlisten": 1712,
      "cent": 1713,
      "Ġbesides": 1714,
      "Ġstopped": 1715,
      "Ġyesterday": 1716,
      "Ġpercent": 1717,
      "Ġgetting": 1718,
      "Ġwhenever": 1719,
      "Ġwave": 1720,
      "Ġeffici": 1721,
      "Ġeats": 1722,
      "Ġemergen": 1723,
      "Ġsilently": 1724,
      "Ġtwitching": 1725,
      "ĠMOM": 1726,
      "Ġtitles": 1727,
      "Ġfish": 1728,
      "Ġdecision": 1729,
      "Ġlistening": 1730,
      "Ġefficient": 1731,
      "Ġemergency": 1732,
      "av": 1733,
      "for": 1734,
      "gi": 1735,
      "ten": 1736,
      "vable": 1737,
      "xt": 1738,
      "Ġide": 1739,
      "Ġhot": 1740,
      "Ġnext": 1741,
      "ume": 1742,
      "Ġanymore": 1743,
      "Ġheav": 1744,
      "Ġplace": 1745,
      "Ġvol": 1746,
      "Ġcommit": 1747,
      "Ġunfor": 1748,
      "Ġsunlight": 1749,
      "Ġcoals": 1750,
      "Ġforgotten": 1751,
      "givable": 1752,
      "Ġideal": 1753,
      "Ġheavy": 1754,
      "Ġvolume": 1755,
      "Ġcommitment": 1756,
      "Ġunforgivable": 1757,
      "min": 1758,
      "Ġgam": 1759,
      "when": 1760,
      "Ġstamin": 1761,
      "Ġtherefore": 1762,
      "Ġyelled": 1763,
      "Ġcontent": 1764,
      "Ġgames": 1765,
      "Ġstamina": 1766,
      "'t": 1767,
      "ho": 1768,
      "uth": 1769,
      "imes": 1770,
      "Ġauth": 1771,
      "Ġmath": 1772,
      "Ġsom": 1773,
      "inet": 1774,
      "Ġdon": 1775,
      "Ġcab": 1776,
      "ority": 1777,
      "lease": 1778,
      "Ġplease": 1779,
      "Ġgho": 1780,
      "Ġmyself": 1781,
      "Ġenter": 1782,
      "etimes": 1783,
      "Ġinch": 1784,
      "Ġrank": 1785,
      "Ġpicking": 1786,
      "Ġauthority": 1787,
      "Ġsometimes": 1788,
      "Ġcabinet": 1789,
      "Ġghost": 1790,
      "Ġranking": 1791,
      "fin": 1792,
      "ired": 1793,
      "pet": 1794,
      "Ġ3": 1795,
      "Ġtable": 1796,
      "Ġtired": 1797,
      "Ġpar": 1798,
      "Ġown": 1799,
      "Ġinfin": 1800,
      "quence": 1801,
      "Ġjud": 1802,
      "adise": 1803,
      "Ġsomewhere": 1804,
      "Ġfix": 1805,
      "Ġcarpet": 1806,
      "Ġknocking": 1807,
      "should": 1808,
      "Ġcheckup": 1809,
      "Ġgreeting": 1810,
      "Ġconsequence": 1811,
      "Ġintend": 1812,
      "Ġparadise": 1813,
      "Ġinfinite": 1814,
      "Ġjudge": 1815,
      "calm": 1816,
      "oic": 1817,
      "Ġnotes": 1818,
      "Ġbearing": 1819,
      "Ġchoic": 1820,
      "Ġwatched": 1821,
      "Ġsunny": 1822,
      "Ġload": 1823,
      "Ġchoices": 1824,
      "fi": 1825,
      "mun": 1826,
      "night": 1827,
      "Ġedge": 1828,
      "Ġtested": 1829,
      "Ġswe": 1830,
      "rently": 1831,
      "Ġwon": 1832,
      "Ġlow": 1833,
      "alth": 1834,
      "Ġwifi": 1835,
      "Ġesc": 1836,
      "Ġhad": 1837,
      "aping": 1838,
      "Ġcancel": 1839,
      "icating": 1840,
      "Ġhealth": 1841,
      "Ġcommun": 1842,
      "Ġdreams": 1843,
      "goodnight": 1844,
      "Ġcurrently": 1845,
      "Ġsweet": 1846,
      "Ġescaping": 1847,
      "Ġcanceled": 1848,
      "Ġhealthy": 1849,
      "Ġcommunicating": 1850,
      "cise": 1851,
      "ew": 1852,
      "gin": 1853,
      "man": 1854,
      "ercise": 1855,
      "Ġsen": 1856,
      "Ġamate": 1857,
      "urs": 1858,
      "Ġbegin": 1859,
      "Ġmail": 1860,
      "ortable": 1861,
      "Ġbuil": 1862,
      "Ġcomfortable": 1863,
      "Ġshift": 1864,
      "Ġsenior": 1865,
      "Ġamateurs": 1866,
      "Ġmailman": 1867,
      "Ġbuilt": 1868,
      "rees": 1869,
      "eps": 1870,
      "Ġagrees": 1871,
      "Ġkeeps": 1872,
      "mire": 1873,
      "Ġsel": 1874,
      "Ġexhausted": 1875,
      "Ġpackage": 1876,
      "Ġadmire": 1877,
      "Ġsqueeze": 1878,
      "Ġself": 1879,
      "yst": 1880,
      "Ġsyst": 1881,
      "otest": 1882,
      "Ġlikes": 1883,
      "Ġwithout": 1884,
      "Ġfill": 1885,
      "Ġprotest": 1886,
      "Ġslid": 1887,
      "Ġworks": 1888,
      "Ġsystem": 1889,
      "ax": 1890,
      "lax": 1891,
      "Ġrelax": 1892,
      "Ġcode": 1893,
      "Ġdrop": 1894,
      "Ġmight": 1895,
      "oned": 1896,
      "Ġboned": 1897,
      "oriously": 1898,
      "ale": 1899,
      "lem": 1900,
      "Ġscale": 1901,
      "Ġliar": 1902,
      "licy": 1903,
      "rint": 1904,
      "Ġsprint": 1905,
      "Ġpolicy": 1906,
      "Ġgloriously": 1907,
      "Ġproblem": 1908,
      "Ġnumbers": 1909,
      "Ġcontain": 1910,
      "Ġnat": 1911,
      "Ġcall": 1912,
      "Ġhate": 1913,
      "urally": 1914,
      "Ġstare": 1915,
      "Ġexception": 1916,
      "Ġnaturally": 1917,
      "Ġcalled": 1918,
      "cc": 1919,
      "cend": 1920,
      "zes": 1921,
      "asion": 1922,
      "Ġoh": 1923,
      "Ġocc": 1924,
      "Ġascend": 1925,
      "Ġmeaningless": 1926,
      "Ġsqueezes": 1927,
      "asionally": 1928,
      "Ġoccasionally": 1929,
      "using": 1930,
      "Ġform": 1931,
      "Ġrespect": 1932,
      "Ġtiming": 1933,
      "Ġcleaned": 1934,
      "Ġconfusing": 1935,
      "gr": 1936,
      "met": 1937,
      "oh": 1938,
      "Ġgour": 1939,
      "Ġate": 1940,
      "ison": 1941,
      "Ġago": 1942,
      "Ġpoison": 1943,
      "grinch": 1944,
      "Ġgourmet": 1945,
      "Ġhello": 1946,
      "Ġright": 1947,
      "bstant": 1948,
      "ial": 1949,
      "ky": 1950,
      "ubstant": 1951,
      "Ġsubstant": 1952,
      "Ġwell": 1953,
      "Ġchon": 1954,
      "Ġfurred": 1955,
      "Ġsubstantial": 1956,
      "Ġchonky": 1957,
      "aut": 1958,
      "int": 1959,
      "sdom": 1960,
      "enance": 1961,
      "Ġwisdom": 1962,
      "Ġsafe": 1963,
      "Ġbeaut": 1964,
      "Ġreap": 1965,
      "Ġgoal": 1966,
      "Ġmaint": 1967,
      "Ġbury": 1968,
      "iful": 1969,
      "Ġsnacks": 1970,
      "pear": 1971,
      "Ġrequire": 1972,
      "Ġbalance": 1973,
      "Ġbeautiful": 1974,
      "Ġreappear": 1975,
      "Ġmaintenance": 1976,
      "Ġbeautifully": 1977,
      "Ġarrive": 1978,
      "Ġpets": 1979,
      "Ġarrives": 1980,
      "iate": 1981,
      "med": 1982,
      "Ġim": 1983,
      "Ġlay": 1984,
      "Ġmess": 1985,
      "iately": 1986,
      "mediately": 1987,
      "Ġimmediately": 1988,
      "Ġwarmer": 1989,
      "Ġcarry": 1990,
      "Ġsuff": 1991,
      "Ġsuffer": 1992,
      "uck": 1993,
      "assic": 1994,
      "Ġclassic": 1995,
      "Ġstuck": 1996,
      "feed": 1997,
      "Ġpretended": 1998,
      "music": 1999,
      "oy": 2000,
      "row": 2001,
      "Ġboy": 2002,
      "throw": 2003,
      "Ġali": 2004,
      "Ġthese": 2005,
      "Ġlaziest": 2006,
      "Ġfloofiest": 2007,
      "Ġpeace": 2008,
      "Ġconfession": 2009,
      "Ġalive": 2010,
      "Ġthunder": 2011,
      "Ġlickable": 2012,
      "Ġlight": 2013,
      "Ġlights": 2014,
      "Ġalarm": 2015,
      "Ġsmoke": 2016,
      "ks": 2017,
      "wor": 2018,
      "rewor": 2019,
      "Ġlet": 2020,
      "Ġfirewor": 2021,
      "Ġtruck": 2022,
      "Ġfireworks": 2023,
      "storm": 2024,
      "Ġart": 2025,
      "Ġkick": 2026,
      "Ġalso": 2027,
      "Ġkicked": 2028,
      "Ġsimp": 2029,
      "Ġshould": 2030,
      "Ġsimple": 2031,
      "ender": 2032,
      "Ġboredom": 2033,
      "Ġblender": 2034,
      "Ġsecret": 2035,
      "bar": 2036,
      "rassi": 2037,
      "ven": 2038,
      "lect": 2039,
      "Ġoven": 2040,
      "Ġreflect": 2041,
      "Ġembar": 2042,
      "rassing": 2043,
      "Ġreflection": 2044,
      "Ġembarrassing": 2045,
      "Ġhands": 2046,
      "Ġsmall": 2047,
      "Ġspot": 2048,
      "Ġexercise": 2049,
      "Ġthank": 2050,
      "Ġeating": 2051,
      "yes": 2052,
      "long": 2053,
      "Ġtop": 2054,
      "Ġwet": 2055,
      "Ġstuff": 2056,
      "Ġwhatever": 2057,
      "Ġchick": 2058,
      "Ġchicken": 2059,
      "churu": 2060,
      "fession": 2061,
      "confession": 2062,
      "iat": 2063,
      "Ġrad": 2064,
      "iator": 2065,
      "Ġradiator": 2066,
      "wis": 2067,
      "wisdom": 2068,
      "inion": 2069,
      "Ġopinion": 2070,
      "go": 2071,
      "just": 2072,
      "talk": 2073,
      "cret": 2074,
      "secret": 2075,
      "Ġthoughts": 2076,
      "pri": 2077,
      "sur": 2078,
      "share": 2079,
      "prise": 2080,
      "surprise": 2081,
      "ert": 2082,
      "ind": 2083,
      "Ġmind": 2084,
      "entert": 2085,
      "entertain": 2086,
      "eak": 2087,
      "speak": 2088,
      "hands": 2089,
      "Ġworld": 2090,
      "affection": 2091,
      "this": 2092,
      "Ġjoke": 2093,
      "sleep": 2094,
      "sleeping": 2095,
      "these": 2096,
      "Ġtried": 2097,
      "fr": 2098,
      "from": 2099,
      "make": 2100,
      "ugh": 2101,
      "sill": 2102,
      "Ġlaugh": 2103,
      "Ġwindowsill": 2104,
      "ex": 2105,
      "exercise": 2106,
      "hk": 2107,
      "rain": 2108,
      "hhhk": 2109,
      "oday": 2110,
      "sonny": 2111,
      "today": 2112,
      "thank": 2113,
      "chase": 2114,
      "while": 2115,
      "small": 2116,
      "put": 2117,
      "privacy": 2118,
      "child": 2119,
      "children": 2120,
      "bored": 2121,
      "anyone": 2122,
      "boredom": 2123,
      "isi": 2124,
      "tor": 2125,
      "Ġvisi": 2126,
      "zoomies": 2127,
      "Ġvisitor": 2128,
      "open": 2129,
      "Ġlooked": 2130,
      "bath": 2131,
      "being": 2132,
      "Ġtail": 2133,
      "ker": 2134,
      "Ġwhis": 2135,
      "Ġcoat": 2136,
      "kers": 2137,
      "Ġwhiskers": 2138,
      "Ġtrap": 2139,
      "whatever": 2140
    },
    "merges": [
      [
        "i",
        "m"
      ],
      [
        "<",
        "|"
      ],
      [
        "|",
        ">"
      ],
      [
        "s",
        "t"
      ],
      [
        "st",
        "a"
      ],
      [
        "n",
        "d"
      ],
      [
        "Ġ",
        "i"
      ],
      [
        "Ġ",
        "t"
      ],
      [
        "r",
        "t"
      ],
      [
        "e",
        "nd"
      ],
      [
        "sta",
        "rt"
      ],
      [
        "e",
        "r"
      ],
      [
        "Ġ",
        "a"
      ],
      [
        "Ġt",
        "h"
      ],
      [
        "o",
        "u"
      ],
      [
        "Ġ",
        "m"
      ],
      [
        "n",
        "t"
      ],
      [
        "a",
        "s"
      ],
      [
        "Ġth",
        "e"
      ],
      [
        "Ġ",
        "f"
      ],
      [
        "Ġ",
        "s"
      ],
      [
        "u",
        "s"
      ],
      [
        "r",
        "e"
      ],
      [
        "s",
        "i"
      ],
      [
        "i",
        "n"
      ],
      [
        "Ġ",
        "w"
      ],
      [
        "sta",
        "nt"
      ],
      [
        "as",
        "si"
      ],
      [
        ".",
        "<|"
      ],
      [
        "us",
        "er"
      ],
      [
        "assi",
        "stant"
      ],
      [
        "Ġ",
        "n"
      ],
      [
        "o",
        "n"
      ],
      [
        "Ġ",
        "l"
      ],
      [
        "a",
        "t"
      ],
      [
        "y",
        "ou"
      ],
      [
        "Ġ",
        "d"
      ],
      [
        "Ġi",
        "s"
      ],
      [
        "Ġ",
        "you"
      ],
      [
        "o",
        "t"
      ],
      [
        "o",
        "m"
      ],
      [
        "in",
        "g"
      ],
      [
        "Ġi",
        "t"
      ],
      [
        "e",
        "d"
      ],
      [
        "Ġ",
        "c"
      ],
      [
        "Ġ",
        "b"
      ],
      [
        "o",
        "r"
      ],
      [
        "Ġn",
        "ot"
      ],
      [
        "Ġ",
        "h"
      ],
      [
        "a",
        "l"
      ],
      [
        "l",
        "e"
      ],
      [
        "Ġ",
        "p"
      ],
      [
        "l",
        "y"
      ],
      [
        "Ġd",
        "o"
      ],
      [
        "Ġl",
        "a"
      ],
      [
        "Ġ",
        "on"
      ],
      [
        "Ġm",
        "e"
      ],
      [
        "Ġt",
        "o"
      ],
      [
        "Ġm",
        "om"
      ],
      [
        "l",
        "l"
      ],
      [
        "Ġ",
        "o"
      ],
      [
        "u",
        "nd"
      ],
      [
        "Ġa",
        "nd"
      ],
      [
        "a",
        "n"
      ],
      [
        "a",
        "r"
      ],
      [
        "o",
        "o"
      ],
      [
        "o",
        "w"
      ],
      [
        "e",
        "n"
      ],
      [
        "u",
        "n"
      ],
      [
        "v",
        "e"
      ],
      [
        "Ġa",
        "re"
      ],
      [
        "Ġw",
        "i"
      ],
      [
        "Ġf",
        "or"
      ],
      [
        "Ġth",
        "at"
      ],
      [
        "Ġ",
        "g"
      ],
      [
        "r",
        "y"
      ],
      [
        "i",
        "d"
      ],
      [
        "a",
        "m"
      ],
      [
        "Ġa",
        "m"
      ],
      [
        "e",
        "st"
      ],
      [
        "h",
        "at"
      ],
      [
        "Ġm",
        "y"
      ],
      [
        "Ġla",
        "und"
      ],
      [
        "Ġlaund",
        "ry"
      ],
      [
        "Ġ",
        "e"
      ],
      [
        "un",
        "a"
      ],
      [
        "Ġt",
        "una"
      ],
      [
        "t",
        "h"
      ],
      [
        "s",
        "e"
      ],
      [
        "Ġs",
        "c"
      ],
      [
        "a",
        "y"
      ],
      [
        "Ġs",
        "o"
      ],
      [
        "v",
        "er"
      ],
      [
        "e",
        "s"
      ],
      [
        "Ġf",
        "e"
      ],
      [
        "l",
        "oo"
      ],
      [
        "u",
        "r"
      ],
      [
        "Ġo",
        "f"
      ],
      [
        "e",
        "t"
      ],
      [
        "Ġa",
        "t"
      ],
      [
        "Ġwi",
        "ll"
      ],
      [
        "Ġs",
        "a"
      ],
      [
        "c",
        "h"
      ],
      [
        "Ġl",
        "i"
      ],
      [
        "Ġn",
        "e"
      ],
      [
        "c",
        "e"
      ],
      [
        "Ġh",
        "a"
      ],
      [
        "in",
        "e"
      ],
      [
        "Ġw",
        "as"
      ],
      [
        "re",
        "am"
      ],
      [
        "Ġyou",
        "r"
      ],
      [
        "i",
        "t"
      ],
      [
        "c",
        "k"
      ],
      [
        "loo",
        "k"
      ],
      [
        "Ġsa",
        "id"
      ],
      [
        "w",
        "hat"
      ],
      [
        "Ġi",
        "n"
      ],
      [
        "l",
        "i"
      ],
      [
        "o",
        "re"
      ],
      [
        "Ġn",
        "ow"
      ],
      [
        "a",
        "re"
      ],
      [
        "er",
        "e"
      ],
      [
        "o",
        "k"
      ],
      [
        "Ġw",
        "h"
      ],
      [
        "al",
        "k"
      ],
      [
        "Ġb",
        "e"
      ],
      [
        "Ġfe",
        "ed"
      ],
      [
        "Ġsc",
        "ream"
      ],
      [
        "Ġd",
        "i"
      ],
      [
        "ou",
        "t"
      ],
      [
        "a",
        "b"
      ],
      [
        "i",
        "on"
      ],
      [
        "n",
        "y"
      ],
      [
        "st",
        "en"
      ],
      [
        "h",
        "on"
      ],
      [
        "Ġt",
        "alk"
      ],
      [
        "re",
        "al"
      ],
      [
        "Ġha",
        "ve"
      ],
      [
        "d",
        "o"
      ],
      [
        "Ġ",
        "re"
      ],
      [
        "f",
        "ine"
      ],
      [
        "li",
        "sten"
      ],
      [
        "est",
        "ly"
      ],
      [
        "hon",
        "estly"
      ],
      [
        "und",
        "er"
      ],
      [
        "Ġ",
        "under"
      ],
      [
        "i",
        "s"
      ],
      [
        "Ġf",
        "r"
      ],
      [
        "Ġs",
        "h"
      ],
      [
        "u",
        "m"
      ],
      [
        "o",
        "ve"
      ],
      [
        "q",
        "u"
      ],
      [
        "Ġp",
        "i"
      ],
      [
        "g",
        "e"
      ],
      [
        "w",
        "h"
      ],
      [
        "om",
        "e"
      ],
      [
        "sta",
        "nd"
      ],
      [
        "o",
        "se"
      ],
      [
        "Ġ",
        "u"
      ],
      [
        "ab",
        "le"
      ],
      [
        "k",
        "e"
      ],
      [
        "oo",
        "d"
      ],
      [
        "e",
        "ll"
      ],
      [
        "i",
        "ou"
      ],
      [
        "iou",
        "s"
      ],
      [
        "rt",
        "y"
      ],
      [
        "ar",
        "m"
      ],
      [
        "g",
        "h"
      ],
      [
        "Ġunder",
        "stand"
      ],
      [
        "Ġc",
        "h"
      ],
      [
        "Ġf",
        "ur"
      ],
      [
        "Ġw",
        "hat"
      ],
      [
        "Ġwi",
        "th"
      ],
      [
        "Ġdi",
        "rty"
      ],
      [
        "Ġc",
        "l"
      ],
      [
        "Ġw",
        "arm"
      ],
      [
        "Ġfr",
        "om"
      ],
      [
        "a",
        "p"
      ],
      [
        "e",
        "c"
      ],
      [
        "Ġ",
        "r"
      ],
      [
        "Ġo",
        "b"
      ],
      [
        "a",
        "nt"
      ],
      [
        "g",
        "ot"
      ],
      [
        "Ġwas",
        "h"
      ],
      [
        "Ġ",
        "qu"
      ],
      [
        "ot",
        "h"
      ],
      [
        "at",
        "ch"
      ],
      [
        "Ġc",
        "an"
      ],
      [
        "u",
        "st"
      ],
      [
        "Ġon",
        "ly"
      ],
      [
        "on",
        "e"
      ],
      [
        "f",
        "f"
      ],
      [
        "Ġf",
        "ore"
      ],
      [
        "Ġfore",
        "ver"
      ],
      [
        "ious",
        "ly"
      ],
      [
        "Ġpi",
        "le"
      ],
      [
        "Ġunderstand",
        "s"
      ],
      [
        "Ġl",
        "ove"
      ],
      [
        "Ġm",
        "o"
      ],
      [
        "Ġthe",
        "n"
      ],
      [
        "v",
        "iously"
      ],
      [
        "Ġob",
        "viously"
      ],
      [
        "Ġt",
        "er"
      ],
      [
        "Ġth",
        "ose"
      ],
      [
        "l",
        "d"
      ],
      [
        "p",
        "t"
      ],
      [
        "Ġf",
        "in"
      ],
      [
        "Ġfin",
        "al"
      ],
      [
        "est",
        "ion"
      ],
      [
        "Ġqu",
        "estion"
      ],
      [
        "gh",
        "t"
      ],
      [
        "m",
        "s"
      ],
      [
        "Ġter",
        "ms"
      ],
      [
        "i",
        "able"
      ],
      [
        "Ġne",
        "got"
      ],
      [
        "Ġnegot",
        "iable"
      ],
      [
        "r",
        "ing"
      ],
      [
        "Ġla",
        "w"
      ],
      [
        "u",
        "t"
      ],
      [
        "Ġ",
        "sta"
      ],
      [
        "wh",
        "y"
      ],
      [
        "Ġc",
        "at"
      ],
      [
        "b",
        "out"
      ],
      [
        "Ġa",
        "bout"
      ],
      [
        "r",
        "i"
      ],
      [
        "Ġ",
        "k"
      ],
      [
        "e",
        "p"
      ],
      [
        "Ġu",
        "p"
      ],
      [
        "Ġla",
        "z"
      ],
      [
        "Ġ",
        "j"
      ],
      [
        "Ġp",
        "a"
      ],
      [
        "Ġn",
        "ap"
      ],
      [
        "Ġ",
        "st"
      ],
      [
        "Ġb",
        "i"
      ],
      [
        "Ġa",
        "c"
      ],
      [
        "f",
        "t"
      ],
      [
        "e",
        "nt"
      ],
      [
        "Ġf",
        "ood"
      ],
      [
        "Ġli",
        "ke"
      ],
      [
        "Ġ",
        "or"
      ],
      [
        "a",
        "d"
      ],
      [
        "Ġon",
        "e"
      ],
      [
        "Ġa",
        "ny"
      ],
      [
        "r",
        "o"
      ],
      [
        "i",
        "c"
      ],
      [
        "Ġwh",
        "o"
      ],
      [
        "Ġt",
        "im"
      ],
      [
        "Ġd",
        "id"
      ],
      [
        "le",
        "ep"
      ],
      [
        "Ġlaz",
        "y"
      ],
      [
        "ver",
        "y"
      ],
      [
        "ou",
        "nd"
      ],
      [
        "us",
        "e"
      ],
      [
        "th",
        "ing"
      ],
      [
        "Ġw",
        "atch"
      ],
      [
        "Ġk",
        "n"
      ],
      [
        "Ġ",
        "out"
      ],
      [
        "on",
        "ny"
      ],
      [
        "Ġl",
        "e"
      ],
      [
        "Ġs",
        "onny"
      ],
      [
        "Ġh",
        "ou"
      ],
      [
        "Ġof",
        "f"
      ],
      [
        "ou",
        "d"
      ],
      [
        "al",
        "l"
      ],
      [
        "Ġa",
        "n"
      ],
      [
        "Ġn",
        "o"
      ],
      [
        "Ġh",
        "ere"
      ],
      [
        "Ġh",
        "e"
      ],
      [
        "Ġth",
        "is"
      ],
      [
        "g",
        "n"
      ],
      [
        "Ġg",
        "o"
      ],
      [
        "th",
        "e"
      ],
      [
        "Ġ",
        "y"
      ],
      [
        "ce",
        "pt"
      ],
      [
        "Ġth",
        "ing"
      ],
      [
        "nt",
        "i"
      ],
      [
        "Ġe",
        "x"
      ],
      [
        "ow",
        "l"
      ],
      [
        "w",
        "ay"
      ],
      [
        "Ġl",
        "oud"
      ],
      [
        "p",
        "p"
      ],
      [
        "Ġf",
        "loo"
      ],
      [
        "Ġfloo",
        "f"
      ],
      [
        "a",
        "c"
      ],
      [
        "Ġs",
        "leep"
      ],
      [
        "Ġw",
        "ant"
      ],
      [
        "Ġs",
        "ome"
      ],
      [
        "i",
        "ght"
      ],
      [
        "Ġp",
        "er"
      ],
      [
        "Ġe",
        "very"
      ],
      [
        "Ġa",
        "l"
      ],
      [
        "Ġa",
        "ll"
      ],
      [
        "Ġto",
        "o"
      ],
      [
        "o",
        "x"
      ],
      [
        "Ġa",
        "s"
      ],
      [
        "Ġdo",
        "or"
      ],
      [
        "Ġf",
        "a"
      ],
      [
        "Ġtim",
        "e"
      ],
      [
        "Ġf",
        "l"
      ],
      [
        "Ġcl",
        "oth"
      ],
      [
        "Ġcloth",
        "es"
      ],
      [
        "Ġw",
        "e"
      ],
      [
        "Ġp",
        "l"
      ],
      [
        "re",
        "at"
      ],
      [
        "Ġf",
        "u"
      ],
      [
        "am",
        "e"
      ],
      [
        "v",
        "ed"
      ],
      [
        "Ġpa",
        "w"
      ],
      [
        "on",
        "g"
      ],
      [
        "as",
        "e"
      ],
      [
        "Ġb",
        "ox"
      ],
      [
        "w",
        "n"
      ],
      [
        "Ġbe",
        "c"
      ],
      [
        "Ġ",
        "v"
      ],
      [
        "Ġc",
        "le"
      ],
      [
        "Ġmo",
        "st"
      ],
      [
        "Ġc",
        "ou"
      ],
      [
        "Ġd",
        "ay"
      ],
      [
        "an",
        "ge"
      ],
      [
        "h",
        "ing"
      ],
      [
        "d",
        "e"
      ],
      [
        "al",
        "ly"
      ],
      [
        "Ġscream",
        "ed"
      ],
      [
        "t",
        "er"
      ],
      [
        "ec",
        "t"
      ],
      [
        "d",
        "s"
      ],
      [
        "Ġg",
        "et"
      ],
      [
        "s",
        "s"
      ],
      [
        "at",
        "h"
      ],
      [
        "Ġg",
        "r"
      ],
      [
        "Ġsh",
        "ed"
      ],
      [
        "w",
        "e"
      ],
      [
        "ur",
        "u"
      ],
      [
        "Ġdo",
        "wn"
      ],
      [
        "Ġo",
        "p"
      ],
      [
        "Ġli",
        "e"
      ],
      [
        "e",
        "m"
      ],
      [
        "Ġscream",
        "ing"
      ],
      [
        "an",
        "s"
      ],
      [
        "Ġb",
        "owl"
      ],
      [
        "Ġm",
        "a"
      ],
      [
        "at",
        "e"
      ],
      [
        "o",
        "p"
      ],
      [
        "Ġj",
        "ust"
      ],
      [
        "in",
        "k"
      ],
      [
        "Ġop",
        "en"
      ],
      [
        "Ġm",
        "ay"
      ],
      [
        "Ġ",
        "us"
      ],
      [
        "Ġch",
        "uru"
      ],
      [
        "Ġcat",
        "s"
      ],
      [
        "Ġwho",
        "le"
      ],
      [
        "Ġu",
        "nti"
      ],
      [
        "Ġunti",
        "l"
      ],
      [
        "a",
        "in"
      ],
      [
        "Ġnot",
        "hing"
      ],
      [
        "Ġs",
        "m"
      ],
      [
        "i",
        "se"
      ],
      [
        "Ġne",
        "ar"
      ],
      [
        "Ġc",
        "on"
      ],
      [
        "Ġl",
        "ong"
      ],
      [
        "Ġp",
        "ur"
      ],
      [
        "Ġb",
        "y"
      ],
      [
        "Ġh",
        "um"
      ],
      [
        "Ġwh",
        "en"
      ],
      [
        "Ġcle",
        "an"
      ],
      [
        "Ġch",
        "ase"
      ],
      [
        "at",
        "er"
      ],
      [
        "Ġd",
        "ot"
      ],
      [
        "u",
        "um"
      ],
      [
        "ac",
        "uum"
      ],
      [
        "Ġv",
        "acuum"
      ],
      [
        "Ġkn",
        "ow"
      ],
      [
        "y",
        "ing"
      ],
      [
        "Ġnap",
        "p"
      ],
      [
        "b",
        "er"
      ],
      [
        "Ġto",
        "y"
      ],
      [
        "Ġm",
        "in"
      ],
      [
        "Ġc",
        "om"
      ],
      [
        "b",
        "e"
      ],
      [
        "Ġac",
        "cept"
      ],
      [
        "a",
        "ck"
      ],
      [
        "ar",
        "k"
      ],
      [
        "Ġst",
        "r"
      ],
      [
        "Ġfu",
        "ll"
      ],
      [
        "Ġhou",
        "r"
      ],
      [
        "r",
        "ds"
      ],
      [
        "Ġi",
        "f"
      ],
      [
        "Ġhe",
        "ar"
      ],
      [
        "Ġat",
        "t"
      ],
      [
        "Ġi",
        "gn"
      ],
      [
        "ore",
        "d"
      ],
      [
        "Ġb",
        "ring"
      ],
      [
        "Ġpi",
        "ck"
      ],
      [
        "Ġpaw",
        "s"
      ],
      [
        "Ġb",
        "et"
      ],
      [
        "Ġper",
        "f"
      ],
      [
        "u",
        "ff"
      ],
      [
        "Ġsh",
        "e"
      ],
      [
        "Ġw",
        "a"
      ],
      [
        "e",
        "ad"
      ],
      [
        "Ġon",
        "ce"
      ],
      [
        "o",
        "rt"
      ],
      [
        "Ġe",
        "ar"
      ],
      [
        "ou",
        "ld"
      ],
      [
        "o",
        "ck"
      ],
      [
        "Ġh",
        "as"
      ],
      [
        "it",
        "y"
      ],
      [
        "Ġbi",
        "g"
      ],
      [
        "o",
        "or"
      ],
      [
        "Ġor",
        "ange"
      ],
      [
        "i",
        "le"
      ],
      [
        "r",
        "ge"
      ],
      [
        "Ġw",
        "or"
      ],
      [
        "Ġla",
        "rge"
      ],
      [
        "d",
        "ay"
      ],
      [
        "Ġ",
        "un"
      ],
      [
        "v",
        "ing"
      ],
      [
        "Ġs",
        "un"
      ],
      [
        "Ġp",
        "re"
      ],
      [
        "Ġb",
        "u"
      ],
      [
        "Ġf",
        "ound"
      ],
      [
        "Ġsc",
        "are"
      ],
      [
        "nt",
        "o"
      ],
      [
        "w",
        "ant"
      ],
      [
        "Ġs",
        "n"
      ],
      [
        "Ġsta",
        "ring"
      ],
      [
        "Ġs",
        "ec"
      ],
      [
        "g",
        "et"
      ],
      [
        "Ġs",
        "p"
      ],
      [
        "Ġd",
        "ream"
      ],
      [
        "Ġt",
        "reat"
      ],
      [
        "Ġhum",
        "an"
      ],
      [
        "Ġt",
        "u"
      ],
      [
        "s",
        "p"
      ],
      [
        "Ġne",
        "ver"
      ],
      [
        "Ġle",
        "ft"
      ],
      [
        "Ġf",
        "i"
      ],
      [
        "Ġt",
        "r"
      ],
      [
        "Ġth",
        "ere"
      ],
      [
        "Ġhou",
        "se"
      ],
      [
        "Ġdo",
        "es"
      ],
      [
        "Ġc",
        "ar"
      ],
      [
        "an",
        "y"
      ],
      [
        "Ġw",
        "ater"
      ],
      [
        "Ġs",
        "it"
      ],
      [
        "Ġl",
        "ying"
      ],
      [
        "Ġkn",
        "ock"
      ],
      [
        "Ġcou",
        "ch"
      ],
      [
        "Ġg",
        "one"
      ],
      [
        "Ġm",
        "ust"
      ],
      [
        "Ġa",
        "g"
      ],
      [
        "Ġfl",
        "oor"
      ],
      [
        "si",
        "de"
      ],
      [
        "Ġm",
        "ove"
      ],
      [
        "ro",
        "om"
      ],
      [
        "o",
        "nd"
      ],
      [
        "wh",
        "ere"
      ],
      [
        "Ġsec",
        "ond"
      ],
      [
        "Ġt",
        "ri"
      ],
      [
        "st",
        "op"
      ],
      [
        "Ġbi",
        "rds"
      ],
      [
        "le",
        "ss"
      ],
      [
        "g",
        "er"
      ],
      [
        "Ġc",
        "o"
      ],
      [
        "or",
        "y"
      ],
      [
        "Ġfe",
        "ar"
      ],
      [
        "Ġsh",
        "ow"
      ],
      [
        "h",
        "ed"
      ],
      [
        "Ġn",
        "ame"
      ],
      [
        "p",
        "l"
      ],
      [
        "Ġmo",
        "ved"
      ],
      [
        "Ġn",
        "ight"
      ],
      [
        "Ġne",
        "ed"
      ],
      [
        "o",
        "om"
      ],
      [
        "re",
        "d"
      ],
      [
        "Ġw",
        "ould"
      ],
      [
        "Ġy",
        "ell"
      ],
      [
        "c",
        "ome"
      ],
      [
        "Ġac",
        "t"
      ],
      [
        "Ġre",
        "m"
      ],
      [
        "a",
        "use"
      ],
      [
        "Ġbec",
        "ause"
      ],
      [
        "it",
        "e"
      ],
      [
        "Ġg",
        "ood"
      ],
      [
        "in",
        "ch"
      ],
      [
        "Ġt",
        "w"
      ],
      [
        "Ġp",
        "o"
      ],
      [
        "Ġe",
        "ff"
      ],
      [
        "nd",
        "ow"
      ],
      [
        "Ġwi",
        "ndow"
      ],
      [
        "i",
        "r"
      ],
      [
        "Ġha",
        "ir"
      ],
      [
        "Ġany",
        "thing"
      ],
      [
        "Ġany",
        "one"
      ],
      [
        "way",
        "s"
      ],
      [
        "Ġal",
        "ways"
      ],
      [
        "Ġmost",
        "ly"
      ],
      [
        "a",
        "ge"
      ],
      [
        "Ġperf",
        "ect"
      ],
      [
        "Ġpl",
        "ay"
      ],
      [
        "oth",
        "er"
      ],
      [
        "Ġmin",
        "ut"
      ],
      [
        "r",
        "atch"
      ],
      [
        "Ġsc",
        "ratch"
      ],
      [
        "Ġl",
        "o"
      ],
      [
        "Ġp",
        "r"
      ],
      [
        "Ġth",
        "ink"
      ],
      [
        "Ġf",
        "ine"
      ],
      [
        "t",
        "le"
      ],
      [
        "Ġas",
        "k"
      ],
      [
        "Ġl",
        "oo"
      ],
      [
        "Ġloo",
        "k"
      ],
      [
        "k",
        "et"
      ],
      [
        "Ġha",
        "pp"
      ],
      [
        "Ġa",
        "r"
      ],
      [
        "Ġs",
        "ing"
      ],
      [
        "Ġr",
        "u"
      ],
      [
        "h",
        "ere"
      ],
      [
        "Ġ",
        "4"
      ],
      [
        "Ġg",
        "room"
      ],
      [
        "you",
        "r"
      ],
      [
        "or",
        "m"
      ],
      [
        "Ġnapp",
        "ed"
      ],
      [
        "Ġre",
        "f"
      ],
      [
        "Ġd",
        "ark"
      ],
      [
        "Ġwh",
        "ile"
      ],
      [
        "t",
        "ing"
      ],
      [
        "ent",
        "ion"
      ],
      [
        "Ġatt",
        "ention"
      ],
      [
        "Ġb",
        "ut"
      ],
      [
        "Ġtreat",
        "s"
      ],
      [
        "s",
        "ed"
      ],
      [
        "e",
        "l"
      ],
      [
        "us",
        "ic"
      ],
      [
        "Ġdo",
        "ing"
      ],
      [
        "i",
        "ve"
      ],
      [
        "u",
        "d"
      ],
      [
        "a",
        "rt"
      ],
      [
        "u",
        "p"
      ],
      [
        "Ġfl",
        "uff"
      ],
      [
        "Ġfluff",
        "y"
      ],
      [
        "n",
        "ed"
      ],
      [
        "Ġfor",
        "get"
      ],
      [
        "Ġfa",
        "st"
      ],
      [
        "Ġhear",
        "d"
      ],
      [
        "ath",
        "er"
      ],
      [
        "Ġp",
        "ut"
      ],
      [
        "Ġcl",
        "o"
      ],
      [
        "Ġgr",
        "inch"
      ],
      [
        "Ġe",
        "at"
      ],
      [
        "v",
        "or"
      ],
      [
        "Ġfa",
        "vor"
      ],
      [
        "Ġfavor",
        "ite"
      ],
      [
        "us",
        "y"
      ],
      [
        "ri",
        "er"
      ],
      [
        "Ġcar",
        "rier"
      ],
      [
        "Ġla",
        "p"
      ],
      [
        "Ġthing",
        "s"
      ],
      [
        "Ġr",
        "un"
      ],
      [
        "ou",
        "gh"
      ],
      [
        "Ġp",
        "ro"
      ],
      [
        "Ġs",
        "l"
      ],
      [
        "Ġthe",
        "m"
      ],
      [
        "Ġeff",
        "ort"
      ],
      [
        "id",
        "e"
      ],
      [
        "Ġfeed",
        "ing"
      ],
      [
        "Ġsa",
        "w"
      ],
      [
        "ou",
        "ght"
      ],
      [
        "Ġfeed",
        "s"
      ],
      [
        "Ġag",
        "ain"
      ],
      [
        "em",
        "ber"
      ],
      [
        "ec",
        "i"
      ],
      [
        "st",
        "ead"
      ],
      [
        "Ġin",
        "stead"
      ],
      [
        "Ġa",
        "pp"
      ],
      [
        "Ġapp",
        "e"
      ],
      [
        "Ġdi",
        "st"
      ],
      [
        "Ġt",
        "ell"
      ],
      [
        "Ġre",
        "d"
      ],
      [
        "a",
        "k"
      ],
      [
        "Ġe",
        "m"
      ],
      [
        "i",
        "p"
      ],
      [
        "Ġsm",
        "ell"
      ],
      [
        "nt",
        "er"
      ],
      [
        "i",
        "ld"
      ],
      [
        "t",
        "end"
      ],
      [
        "f",
        "e"
      ],
      [
        "i",
        "ff"
      ],
      [
        "Ġaccept",
        "able"
      ],
      [
        "Ġsn",
        "iff"
      ],
      [
        "Ġb",
        "ed"
      ],
      [
        "Ġhour",
        "s"
      ],
      [
        "i",
        "e"
      ],
      [
        "Ġref",
        "use"
      ],
      [
        "Ġb",
        "ored"
      ],
      [
        "Ġus",
        "ed"
      ],
      [
        "i",
        "ce"
      ],
      [
        "Ġto",
        "day"
      ],
      [
        "Ġt",
        "a"
      ],
      [
        "Ġs",
        "ay"
      ],
      [
        "Ġm",
        "usic"
      ],
      [
        "le",
        "t"
      ],
      [
        "Ġg",
        "ot"
      ],
      [
        "Ġsta",
        "red"
      ],
      [
        "ab",
        "ly"
      ],
      [
        "Ġfi",
        "nd"
      ],
      [
        "Ġli",
        "ft"
      ],
      [
        "Ġthe",
        "y"
      ],
      [
        "en",
        "ce"
      ],
      [
        "we",
        "en"
      ],
      [
        "Ġbet",
        "ween"
      ],
      [
        "Ġfur",
        "ry"
      ],
      [
        "p",
        "ose"
      ],
      [
        "Ġpur",
        "pose"
      ],
      [
        "n",
        "ing"
      ],
      [
        "k",
        "es"
      ],
      [
        "Ġex",
        "cept"
      ],
      [
        "Ġfe",
        "et"
      ],
      [
        "Ġh",
        "ome"
      ],
      [
        "h",
        "a"
      ],
      [
        "Ġd",
        "e"
      ],
      [
        "o",
        "l"
      ],
      [
        "Ġb",
        "ath"
      ],
      [
        "l",
        "se"
      ],
      [
        "t",
        "ell"
      ],
      [
        "Ġe",
        "lse"
      ],
      [
        "Ġh",
        "un"
      ],
      [
        "Ġopen",
        "ed"
      ],
      [
        "an",
        "ce"
      ],
      [
        "Ġsecond",
        "s"
      ],
      [
        "Ġw",
        "all"
      ],
      [
        "Ġs",
        "ound"
      ],
      [
        "Ġscare",
        "s"
      ],
      [
        "h",
        "i"
      ],
      [
        "Ġloud",
        "ly"
      ],
      [
        "e",
        "e"
      ],
      [
        "h",
        "ow"
      ],
      [
        "Ġm",
        "at"
      ],
      [
        "Ġminut",
        "es"
      ],
      [
        "as",
        "ket"
      ],
      [
        "Ġb",
        "asket"
      ],
      [
        "Ġtim",
        "es"
      ],
      [
        "Ġsome",
        "thing"
      ],
      [
        "Ġpur",
        "ring"
      ],
      [
        "Ġ",
        "en"
      ],
      [
        "Ġtw",
        "o"
      ],
      [
        "Ġen",
        "ough"
      ],
      [
        "er",
        "ve"
      ],
      [
        "i",
        "ck"
      ],
      [
        "n",
        "er"
      ],
      [
        "Ġf",
        "it"
      ],
      [
        "Ġpl",
        "ans"
      ],
      [
        "Ġmo",
        "ving"
      ],
      [
        "Ġrem",
        "ember"
      ],
      [
        "Ġg",
        "l"
      ],
      [
        "Ġpa",
        "rt"
      ],
      [
        "c",
        "on"
      ],
      [
        "Ġbe",
        "ing"
      ],
      [
        "re",
        "ad"
      ],
      [
        "Ġe",
        "sp"
      ],
      [
        "Ġal",
        "read"
      ],
      [
        "eci",
        "ally"
      ],
      [
        "Ġesp",
        "ecially"
      ],
      [
        "Ġalread",
        "y"
      ],
      [
        "u",
        "ally"
      ],
      [
        "Ġme",
        "ant"
      ],
      [
        "ar",
        "s"
      ],
      [
        "b",
        "ell"
      ],
      [
        "Ġme",
        "an"
      ],
      [
        "um",
        "ber"
      ],
      [
        "Ġdoor",
        "bell"
      ],
      [
        "d",
        "id"
      ],
      [
        "Ġe",
        "nti"
      ],
      [
        "Ġtr",
        "u"
      ],
      [
        "Ġenti",
        "re"
      ],
      [
        "Ġle",
        "a"
      ],
      [
        "s",
        "c"
      ],
      [
        "ok",
        "e"
      ],
      [
        "ce",
        "l"
      ],
      [
        "Ġsmell",
        "s"
      ],
      [
        "Ġs",
        "i"
      ],
      [
        "Ġevery",
        "thing"
      ],
      [
        "i",
        "l"
      ],
      [
        "Ġbe",
        "en"
      ],
      [
        "Ġw",
        "alk"
      ],
      [
        "Ġn",
        "ine"
      ],
      [
        "Ġperfect",
        "ly"
      ],
      [
        "Ġp",
        "e"
      ],
      [
        "d",
        "ing"
      ],
      [
        "Ġshed",
        "ding"
      ],
      [
        "be",
        "am"
      ],
      [
        "Ġsun",
        "beam"
      ],
      [
        "Ġno",
        "ise"
      ],
      [
        "Ġma",
        "ke"
      ],
      [
        "Ġpre",
        "tend"
      ],
      [
        "i",
        "f"
      ],
      [
        "c",
        "an"
      ],
      [
        "Ġas",
        "leep"
      ],
      [
        "Ġ",
        "other"
      ],
      [
        "pl",
        "ed"
      ],
      [
        "Ġtu",
        "be"
      ],
      [
        "Ġh",
        "i"
      ],
      [
        "Ġo",
        "k"
      ],
      [
        "um",
        "p"
      ],
      [
        "Ġj",
        "ump"
      ],
      [
        "Ġevery",
        "one"
      ],
      [
        "e",
        "ck"
      ],
      [
        "Ġknock",
        "ed"
      ],
      [
        "n",
        "ce"
      ],
      [
        "Ġh",
        "ow"
      ],
      [
        "i",
        "end"
      ],
      [
        "Ġfr",
        "iend"
      ],
      [
        "Ġign",
        "ore"
      ],
      [
        "Ġb",
        "l"
      ],
      [
        "Ġsniff",
        "ed"
      ],
      [
        "s",
        "on"
      ],
      [
        "Ġper",
        "son"
      ],
      [
        "an",
        "ger"
      ],
      [
        "Ġstr",
        "anger"
      ],
      [
        "Ġgroom",
        "ed"
      ],
      [
        "Ġnapp",
        "ing"
      ],
      [
        "Ġign",
        "ored"
      ],
      [
        "t",
        "im"
      ],
      [
        "tim",
        "e"
      ],
      [
        "Ġc",
        "ame"
      ],
      [
        "Ġwor",
        "k"
      ],
      [
        "Ġy",
        "es"
      ],
      [
        "b",
        "all"
      ],
      [
        "Ġto",
        "e"
      ],
      [
        "ft",
        "s"
      ],
      [
        "Ġtu",
        "fts"
      ],
      [
        "Ġhair",
        "ball"
      ],
      [
        "im",
        "ed"
      ],
      [
        "Ġb",
        "usy"
      ],
      [
        "Ġru",
        "g"
      ],
      [
        "Ġcl",
        "ose"
      ],
      [
        "Ġcom",
        "f"
      ],
      [
        "si",
        "on"
      ],
      [
        "op",
        "le"
      ],
      [
        "s",
        "h"
      ],
      [
        "re",
        "t"
      ],
      [
        "Ġo",
        "nto"
      ],
      [
        "Ġfe",
        "el"
      ],
      [
        "m",
        "om"
      ],
      [
        "l",
        "f"
      ],
      [
        "re",
        "e"
      ],
      [
        "Ġs",
        "up"
      ],
      [
        "Ġsup",
        "er"
      ],
      [
        "t",
        "hat"
      ],
      [
        "Ġh",
        "er"
      ],
      [
        "Ġperson",
        "al"
      ],
      [
        "z",
        "z"
      ],
      [
        "Ġfu",
        "zz"
      ],
      [
        "d",
        "er"
      ],
      [
        "Ġac",
        "ro"
      ],
      [
        "Ġacro",
        "ss"
      ],
      [
        "ou",
        "l"
      ],
      [
        "Ġs",
        "oul"
      ],
      [
        "ut",
        "e"
      ],
      [
        "Ġany",
        "way"
      ],
      [
        "Ġpo",
        "st"
      ],
      [
        "Ġsm",
        "art"
      ],
      [
        "Ġwatch",
        "ing"
      ],
      [
        "v",
        "ol"
      ],
      [
        "Ġin",
        "vol"
      ],
      [
        "Ġinvol",
        "ved"
      ],
      [
        "Ġi",
        "nto"
      ],
      [
        "Ġf",
        "all"
      ],
      [
        "Ġd",
        "ead"
      ],
      [
        "Ġr",
        "oom"
      ],
      [
        "Ġgr",
        "a"
      ],
      [
        "Ġf",
        "o"
      ],
      [
        "ve",
        "l"
      ],
      [
        "Ġyell",
        "ing"
      ],
      [
        "u",
        "l"
      ],
      [
        "r",
        "a"
      ],
      [
        "Ġ",
        "use"
      ],
      [
        "Ġla",
        "nd"
      ],
      [
        "pt",
        "y"
      ],
      [
        "Ġem",
        "pty"
      ],
      [
        "rt",
        "h"
      ],
      [
        "ar",
        "d"
      ],
      [
        "Ġfloof",
        "y"
      ],
      [
        "Ġclo",
        "sed"
      ],
      [
        "m",
        "ent"
      ],
      [
        "Ġm",
        "ine"
      ],
      [
        "Ġli",
        "t"
      ],
      [
        "Ġsh",
        "are"
      ],
      [
        "Ġtru",
        "e"
      ],
      [
        "c",
        "y"
      ],
      [
        "Ġsome",
        "one"
      ],
      [
        "r",
        "ink"
      ],
      [
        "Ġt",
        "en"
      ],
      [
        "Ġpro",
        "b"
      ],
      [
        "a",
        "f"
      ],
      [
        "z",
        "oom"
      ],
      [
        "Ġlo",
        "af"
      ],
      [
        "Ġhapp",
        "y"
      ],
      [
        "Ġwh",
        "y"
      ],
      [
        "Ġout",
        "side"
      ],
      [
        "as",
        "s"
      ],
      [
        "an",
        "is"
      ],
      [
        "Ġgl",
        "ass"
      ],
      [
        "ter",
        "s"
      ],
      [
        "Ġmat",
        "ters"
      ],
      [
        "i",
        "et"
      ],
      [
        "l",
        "p"
      ],
      [
        "Ġqu",
        "iet"
      ],
      [
        "Ġhe",
        "lp"
      ],
      [
        "Ġmin",
        "im"
      ],
      [
        "Ġc",
        "ome"
      ],
      [
        "ou",
        "r"
      ],
      [
        "Ġm",
        "any"
      ],
      [
        "Ġli",
        "fe"
      ],
      [
        "nt",
        "ly"
      ],
      [
        "Ġb",
        "ack"
      ],
      [
        "al",
        "s"
      ],
      [
        "c",
        "o"
      ],
      [
        "v",
        "ity"
      ],
      [
        "Ġre",
        "co"
      ],
      [
        "Ġreco",
        "ver"
      ],
      [
        "z",
        "e"
      ],
      [
        "Ġ",
        "very"
      ],
      [
        "Ġp",
        "et"
      ],
      [
        "at",
        "ion"
      ],
      [
        "o",
        "ld"
      ],
      [
        "ot",
        "tle"
      ],
      [
        "Ġb",
        "ottle"
      ],
      [
        "Ġh",
        "old"
      ],
      [
        "Ġh",
        "ood"
      ],
      [
        "Ġhood",
        "ie"
      ],
      [
        "i",
        "est"
      ],
      [
        "Ġso",
        "ck"
      ],
      [
        "Ġsock",
        "s"
      ],
      [
        "Ġme",
        "ans"
      ],
      [
        "Ġn",
        "umber"
      ],
      [
        "Ġwor",
        "n"
      ],
      [
        "w",
        "as"
      ],
      [
        "Ġex",
        "cel"
      ],
      [
        "Ġwa",
        "it"
      ],
      [
        "Ġmean",
        "ing"
      ],
      [
        "Ġappe",
        "ars"
      ],
      [
        "Ġear",
        "ned"
      ],
      [
        "i",
        "re"
      ],
      [
        "s",
        "ay"
      ],
      [
        "f",
        "er"
      ],
      [
        "Ġpre",
        "fer"
      ],
      [
        "Ġlea",
        "ve"
      ],
      [
        "Ġbet",
        "ter"
      ],
      [
        "Ġg",
        "reat"
      ],
      [
        "ur",
        "b"
      ],
      [
        "Ġdist",
        "urb"
      ],
      [
        "p",
        "ic"
      ],
      [
        "Ġch",
        "ild"
      ],
      [
        "as",
        "er"
      ],
      [
        "Ġl",
        "aser"
      ],
      [
        "u",
        "est"
      ],
      [
        "Ġ",
        "zoom"
      ],
      [
        "Ġg",
        "uest"
      ],
      [
        "Ġsh",
        "i"
      ],
      [
        "r",
        "ving"
      ],
      [
        "Ġsta",
        "rving"
      ],
      [
        "sp",
        "ect"
      ],
      [
        "ell",
        "o"
      ],
      [
        "Ġex",
        "ha"
      ],
      [
        "Ġexha",
        "ust"
      ],
      [
        "Ġst",
        "ick"
      ],
      [
        "Ġb",
        "ought"
      ],
      [
        "a",
        "g"
      ],
      [
        "Ġb",
        "ag"
      ],
      [
        "en",
        "ed"
      ],
      [
        "Ġhapp",
        "ened"
      ],
      [
        "m",
        "y"
      ],
      [
        "Ġfor",
        "got"
      ],
      [
        "Ġsn",
        "ack"
      ],
      [
        "or",
        "ing"
      ],
      [
        "Ġth",
        "an"
      ],
      [
        "Ġtoy",
        "s"
      ],
      [
        "Ġscratch",
        "ing"
      ],
      [
        "pl",
        "ay"
      ],
      [
        "ud",
        "g"
      ],
      [
        "pp",
        "ed"
      ],
      [
        "u",
        "le"
      ],
      [
        "Ġs",
        "le"
      ],
      [
        "Ġsc",
        "hed"
      ],
      [
        "Ġsle",
        "pt"
      ],
      [
        "Ġsched",
        "ule"
      ],
      [
        "Ġcomf",
        "y"
      ],
      [
        "Ġo",
        "ver"
      ],
      [
        "a",
        "imed"
      ],
      [
        "Ġd",
        "ro"
      ],
      [
        "Ġcl",
        "aimed"
      ],
      [
        "Ġcom",
        "ing"
      ],
      [
        "h",
        "h"
      ],
      [
        "al",
        "m"
      ],
      [
        "Ġbring",
        "s"
      ],
      [
        "gn",
        "if"
      ],
      [
        "Ġma",
        "gnif"
      ],
      [
        "Ġmagnif",
        "ice"
      ],
      [
        "p",
        "e"
      ],
      [
        "Ġt",
        "v"
      ],
      [
        "Ġto",
        "es"
      ],
      [
        "Ġst",
        "orm"
      ],
      [
        "Ġy",
        "owl"
      ],
      [
        "Ġyowl",
        "ing"
      ],
      [
        "li",
        "ght"
      ],
      [
        "re",
        "en"
      ],
      [
        "Ġsc",
        "reen"
      ],
      [
        "Ġbu",
        "y"
      ],
      [
        "any",
        "thing"
      ],
      [
        "Ġforget",
        "ting"
      ],
      [
        "Ġth",
        "ought"
      ],
      [
        "Ġperf",
        "orm"
      ],
      [
        "i",
        "g"
      ],
      [
        "Ġco",
        "ld"
      ],
      [
        "th",
        "ere"
      ],
      [
        "Ġta",
        "ke"
      ],
      [
        "Ġt",
        "ou"
      ],
      [
        "Ġun",
        "less"
      ],
      [
        "Ġtou",
        "ch"
      ],
      [
        "at",
        "ing"
      ],
      [
        "g",
        "ry"
      ],
      [
        "Ġcon",
        "si"
      ],
      [
        "Ġhun",
        "gry"
      ],
      [
        "g",
        "ood"
      ],
      [
        "s",
        "erve"
      ],
      [
        "Ġob",
        "serve"
      ],
      [
        "Ġhear",
        "s"
      ],
      [
        "Ġwe",
        "ather"
      ],
      [
        "r",
        "ay"
      ],
      [
        "Ġm",
        "is"
      ],
      [
        "Ġmis",
        "sed"
      ],
      [
        "i",
        "ence"
      ],
      [
        "Ġsc",
        "ience"
      ],
      [
        "f",
        "ul"
      ],
      [
        "Ġbe",
        "l"
      ],
      [
        "l",
        "t"
      ],
      [
        "Ġs",
        "ile"
      ],
      [
        "Ġfe",
        "lt"
      ],
      [
        "Ġsl",
        "ow"
      ],
      [
        "e",
        "si"
      ],
      [
        "m",
        "esi"
      ],
      [
        "Ġne",
        "mesi"
      ],
      [
        "ate",
        "g"
      ],
      [
        "Ġstr",
        "ateg"
      ],
      [
        "Ġtri",
        "es"
      ],
      [
        "Ġru",
        "de"
      ],
      [
        "Ġnemesi",
        "s"
      ],
      [
        "Ġn",
        "ice"
      ],
      [
        "Ġli",
        "st"
      ],
      [
        "Ġwa",
        "kes"
      ],
      [
        "stant",
        "ly"
      ],
      [
        "Ġcon",
        "stantly"
      ],
      [
        "g",
        "ret"
      ],
      [
        "Ġs",
        "ee"
      ],
      [
        "Ġre",
        "gret"
      ],
      [
        "ark",
        "ably"
      ],
      [
        "Ġrem",
        "arkably"
      ],
      [
        "l",
        "come"
      ],
      [
        "Ġwe",
        "lcome"
      ],
      [
        "Ġb",
        "oth"
      ],
      [
        "oo",
        "p"
      ],
      [
        "Ġsc",
        "oop"
      ],
      [
        "Ġfear",
        "less"
      ],
      [
        "i",
        "or"
      ],
      [
        "Ġme",
        "ow"
      ],
      [
        "ar",
        "ing"
      ],
      [
        "Ġdream",
        "ing"
      ],
      [
        "Ġde",
        "li"
      ],
      [
        "Ġc",
        "hat"
      ],
      [
        "Ġan",
        "other"
      ],
      [
        "e",
        "y"
      ],
      [
        "s",
        "w"
      ],
      [
        "Ġd",
        "ec"
      ],
      [
        "ed",
        "ge"
      ],
      [
        "Ġan",
        "sw"
      ],
      [
        "Ġcle",
        "ver"
      ],
      [
        "Ġdec",
        "ide"
      ],
      [
        "Ġansw",
        "er"
      ],
      [
        "Ġprob",
        "ably"
      ],
      [
        "a",
        "nd"
      ],
      [
        "Ġth",
        "ree"
      ],
      [
        "Ġd",
        "em"
      ],
      [
        "Ġneed",
        "s"
      ],
      [
        "Ġdem",
        "and"
      ],
      [
        "Ġ",
        "ve"
      ],
      [
        "Ġl",
        "ater"
      ],
      [
        "Ġrun",
        "ning"
      ],
      [
        "Ġve",
        "t"
      ],
      [
        "Ġ",
        "stand"
      ],
      [
        "Ġch",
        "eck"
      ],
      [
        "v",
        "ise"
      ],
      [
        "Ġth",
        "r"
      ],
      [
        "Ġsuper",
        "vise"
      ],
      [
        "p",
        "art"
      ],
      [
        "Ġa",
        "part"
      ],
      [
        "in",
        "ner"
      ],
      [
        "Ġd",
        "inner"
      ],
      [
        "or",
        "ning"
      ],
      [
        "Ġfo",
        "rty"
      ],
      [
        "Ġapart",
        "ment"
      ],
      [
        "Ġc",
        "ur"
      ],
      [
        "i",
        "ch"
      ],
      [
        "Ġli",
        "qu"
      ],
      [
        "Ġwh",
        "ich"
      ],
      [
        "Ġpick",
        "ed"
      ],
      [
        "Ġta",
        "x"
      ],
      [
        "Ġsay",
        "s"
      ],
      [
        "Ġliqu",
        "id"
      ],
      [
        "re",
        "n"
      ],
      [
        "Ġbe",
        "hi"
      ],
      [
        "um",
        "b"
      ],
      [
        "Ġr",
        "umb"
      ],
      [
        "Ġclo",
        "s"
      ],
      [
        "Ġbehi",
        "nd"
      ],
      [
        "Ġr",
        "ain"
      ],
      [
        "Ġex",
        "ac"
      ],
      [
        "Ġcou",
        "nt"
      ],
      [
        "Ġexac",
        "t"
      ],
      [
        "f",
        "ore"
      ],
      [
        "Ġm",
        "ore"
      ],
      [
        "it",
        "ch"
      ],
      [
        "Ġor",
        "der"
      ],
      [
        "Ġtw",
        "itch"
      ],
      [
        "Ġre",
        "le"
      ],
      [
        "Ġevery",
        "where"
      ],
      [
        "Ġcou",
        "nter"
      ],
      [
        "se",
        "lf"
      ],
      [
        "Ġj",
        "o"
      ],
      [
        "i",
        "es"
      ],
      [
        "u",
        "is"
      ],
      [
        "ing",
        "uis"
      ],
      [
        "Ġsta",
        "ying"
      ],
      [
        "ic",
        "i"
      ],
      [
        "Ġbec",
        "ome"
      ],
      [
        "Ġknow",
        "s"
      ],
      [
        "Ġdist",
        "inguis"
      ],
      [
        "Ġdistinguis",
        "hed"
      ],
      [
        "w",
        "ard"
      ],
      [
        "id",
        "s"
      ],
      [
        "Ġk",
        "ids"
      ],
      [
        "b",
        "i"
      ],
      [
        "Ġm",
        "ad"
      ],
      [
        "Ġfuzz",
        "y"
      ],
      [
        "bi",
        "rds"
      ],
      [
        "Ġmad",
        "e"
      ],
      [
        "g",
        "est"
      ],
      [
        "re",
        "et"
      ],
      [
        "Ġn",
        "am"
      ],
      [
        "Ġd",
        "rink"
      ],
      [
        "Ġg",
        "reet"
      ],
      [
        "Ġcon",
        "se"
      ],
      [
        "Ġbig",
        "gest"
      ],
      [
        "f",
        "en"
      ],
      [
        "Ġ",
        "ke"
      ],
      [
        "Ġme",
        "ch"
      ],
      [
        "Ġe",
        "ver"
      ],
      [
        "are",
        "d"
      ],
      [
        "Ġre",
        "st"
      ],
      [
        "Ġwa",
        "ke"
      ],
      [
        "Ġtri",
        "pled"
      ],
      [
        "Ġappe",
        "ared"
      ],
      [
        "Ġde",
        "fen"
      ],
      [
        "Ġsi",
        "ze"
      ],
      [
        "anis",
        "m"
      ],
      [
        "Ġmech",
        "anism"
      ],
      [
        "Ġdefen",
        "se"
      ],
      [
        "e",
        "f"
      ],
      [
        "e",
        "k"
      ],
      [
        "m",
        "it"
      ],
      [
        "Ġb",
        "ri"
      ],
      [
        "Ġwe",
        "ek"
      ],
      [
        "Ġbec",
        "ame"
      ],
      [
        "ef",
        "ly"
      ],
      [
        "Ġbri",
        "efly"
      ],
      [
        "Ġpa",
        "ck"
      ],
      [
        "r",
        "d"
      ],
      [
        "Ġo",
        "ld"
      ],
      [
        "est",
        "ed"
      ],
      [
        "Ġbi",
        "rd"
      ],
      [
        "f",
        "ound"
      ],
      [
        "l",
        "er"
      ],
      [
        "in",
        "es"
      ],
      [
        "Ġto",
        "ler"
      ],
      [
        "Ġlaz",
        "ines"
      ],
      [
        "Ġbi",
        "rth"
      ],
      [
        "Ġhum",
        "ans"
      ],
      [
        "Ġpro",
        "found"
      ],
      [
        "Ġtoler",
        "ate"
      ],
      [
        "Ġlazines",
        "s"
      ],
      [
        "Ġbirth",
        "day"
      ],
      [
        "n",
        "it"
      ],
      [
        "u",
        "re"
      ],
      [
        "Ġi",
        "nt"
      ],
      [
        "Ġf",
        "re"
      ],
      [
        "Ġfur",
        "nit"
      ],
      [
        "Ġfre",
        "sh"
      ],
      [
        "Ġfurnit",
        "ure"
      ],
      [
        "Ġw",
        "ort"
      ],
      [
        "se",
        "e"
      ],
      [
        "Ġgo",
        "als"
      ],
      [
        "Ġopen",
        "s"
      ],
      [
        "Ġminim",
        "al"
      ],
      [
        "Ġwort",
        "h"
      ],
      [
        "Ġl",
        "ate"
      ],
      [
        "Ġus",
        "ually"
      ],
      [
        "Ġatt",
        "ack"
      ],
      [
        "Ġear",
        "s"
      ],
      [
        "m",
        "ory"
      ],
      [
        "Ġw",
        "ent"
      ],
      [
        "Ġme",
        "mory"
      ],
      [
        "ff",
        "ect"
      ],
      [
        "ffect",
        "ion"
      ],
      [
        "Ġa",
        "d"
      ],
      [
        "a",
        "st"
      ],
      [
        "f",
        "ast"
      ],
      [
        "re",
        "ak"
      ],
      [
        "Ġb",
        "reak"
      ],
      [
        "ri",
        "ve"
      ],
      [
        "Ġbreak",
        "fast"
      ],
      [
        "b",
        "ute"
      ],
      [
        "Ġa",
        "way"
      ],
      [
        "Ġf",
        "at"
      ],
      [
        "Ġs",
        "et"
      ],
      [
        "Ġr",
        "ange"
      ],
      [
        "Ġgo",
        "ing"
      ],
      [
        "Ġtri",
        "bute"
      ],
      [
        "Ġlit",
        "ter"
      ],
      [
        "Ġin",
        "side"
      ],
      [
        "Ġfr",
        "ight"
      ],
      [
        "Ġact",
        "ually"
      ],
      [
        "Ġfright",
        "en"
      ],
      [
        "v",
        "ac"
      ],
      [
        "Ġ",
        "end"
      ],
      [
        "ri",
        "vac"
      ],
      [
        "Ġgra",
        "vity"
      ],
      [
        "rivac",
        "y"
      ],
      [
        "f",
        "ra"
      ],
      [
        "Ġa",
        "fra"
      ],
      [
        "Ġtr",
        "ust"
      ],
      [
        "Ġafra",
        "id"
      ],
      [
        "le",
        "nt"
      ],
      [
        "Ġre",
        "qu"
      ],
      [
        "Ġco",
        "nt"
      ],
      [
        "Ġexcel",
        "lent"
      ],
      [
        "u",
        "ch"
      ],
      [
        "Ġm",
        "uch"
      ],
      [
        "Ġb",
        "al"
      ],
      [
        "c",
        "et"
      ],
      [
        "u",
        "cet"
      ],
      [
        "ic",
        "ip"
      ],
      [
        "Ġle",
        "vel"
      ],
      [
        "Ġfa",
        "ucet"
      ],
      [
        "Ġpart",
        "icip"
      ],
      [
        "Ġparticip",
        "ation"
      ],
      [
        "im",
        "p"
      ],
      [
        "sta",
        "nce"
      ],
      [
        "Ġdi",
        "stance"
      ],
      [
        "Ġwatch",
        "er"
      ],
      [
        "Ġrun",
        "ner"
      ],
      [
        "Ġpr",
        "oud"
      ],
      [
        "Ġstranger",
        "s"
      ],
      [
        "st",
        "e"
      ],
      [
        "Ġpa",
        "ste"
      ],
      [
        "Ġpe",
        "ople"
      ],
      [
        "g",
        "ed"
      ],
      [
        "r",
        "an"
      ],
      [
        "Ġpr",
        "ove"
      ],
      [
        "Ġar",
        "ran"
      ],
      [
        "Ġarran",
        "ged"
      ],
      [
        "f",
        "ar"
      ],
      [
        "Ġh",
        "al"
      ],
      [
        "Ġsa",
        "far"
      ],
      [
        "Ġhal",
        "f"
      ],
      [
        "Ġsafar",
        "i"
      ],
      [
        "Ġs",
        "qu"
      ],
      [
        "Ġsqu",
        "ee"
      ],
      [
        "wh",
        "o"
      ],
      [
        "Ġsl",
        "ide"
      ],
      [
        "Ġfriend",
        "s"
      ],
      [
        "Ġdi",
        "gn"
      ],
      [
        "Ġloud",
        "est"
      ],
      [
        "Ġdign",
        "ity"
      ],
      [
        "n",
        "ip"
      ],
      [
        "ou",
        "se"
      ],
      [
        "Ġm",
        "ouse"
      ],
      [
        "Ġfe",
        "ather"
      ],
      [
        "Ġcat",
        "nip"
      ],
      [
        "Ġwait",
        "ed"
      ],
      [
        "a",
        "ce"
      ],
      [
        "Ġm",
        "one"
      ],
      [
        "Ġsp",
        "ent"
      ],
      [
        "Ġhun",
        "ger"
      ],
      [
        "Ġmone",
        "y"
      ],
      [
        "h",
        "ello"
      ],
      [
        "Ġh",
        "hh"
      ],
      [
        "Ġin",
        "spect"
      ],
      [
        "Ġhhh",
        "k"
      ],
      [
        "y",
        "m"
      ],
      [
        "Ġd",
        "am"
      ],
      [
        "Ġg",
        "ym"
      ],
      [
        "gn",
        "age"
      ],
      [
        "Ġun",
        "was"
      ],
      [
        "Ġsi",
        "gnage"
      ],
      [
        "Ġshi",
        "rt"
      ],
      [
        "Ġdam",
        "age"
      ],
      [
        "Ġunwas",
        "hed"
      ],
      [
        "t",
        "reat"
      ],
      [
        "Ġc",
        "ap"
      ],
      [
        "Ġh",
        "is"
      ],
      [
        "Ġto",
        "we"
      ],
      [
        "Ġyour",
        "s"
      ],
      [
        "Ġre",
        "treat"
      ],
      [
        "Ġhis",
        "s"
      ],
      [
        "Ġtowe",
        "l"
      ],
      [
        "t",
        "una"
      ],
      [
        "Ġchild",
        "ren"
      ],
      [
        "c",
        "l"
      ],
      [
        "n",
        "g"
      ],
      [
        "Ġi",
        "nter"
      ],
      [
        "us",
        "ive"
      ],
      [
        "Ġin",
        "con"
      ],
      [
        "Ġminut",
        "e"
      ],
      [
        "Ġlo",
        "st"
      ],
      [
        "Ġar",
        "ound"
      ],
      [
        "cl",
        "usive"
      ],
      [
        "Ġinter",
        "est"
      ],
      [
        "Ġincon",
        "clusive"
      ],
      [
        "Ġzoom",
        "ies"
      ],
      [
        "Ġcon",
        "f"
      ],
      [
        "c",
        "t"
      ],
      [
        "Ġli",
        "ck"
      ],
      [
        "Ġwalk",
        "ed"
      ],
      [
        "d",
        "le"
      ],
      [
        "s",
        "o"
      ],
      [
        "Ġc",
        "ud"
      ],
      [
        "Ġcud",
        "dle"
      ],
      [
        "w",
        "ise"
      ],
      [
        "Ġs",
        "us"
      ],
      [
        "Ġs",
        "erve"
      ],
      [
        "Ġother",
        "wise"
      ],
      [
        "pic",
        "ious"
      ],
      [
        "Ġsus",
        "picious"
      ],
      [
        "Ġserve",
        "s"
      ],
      [
        "a",
        "ight"
      ],
      [
        "p",
        "er"
      ],
      [
        "Ġh",
        "am"
      ],
      [
        "Ġsleep",
        "ing"
      ],
      [
        "Ġstr",
        "aight"
      ],
      [
        "Ġham",
        "per"
      ],
      [
        "u",
        "nt"
      ],
      [
        "Ġh",
        "unt"
      ],
      [
        "ter",
        "ing"
      ],
      [
        "Ġexhaust",
        "ing"
      ],
      [
        "Ġchat",
        "tering"
      ],
      [
        "Ġhunt",
        "ing"
      ],
      [
        "Ġa",
        "side"
      ],
      [
        "Ġst",
        "ep"
      ],
      [
        "e",
        "il"
      ],
      [
        "Ġt",
        "ie"
      ],
      [
        "Ġc",
        "eil"
      ],
      [
        "Ġbu",
        "g"
      ],
      [
        "Ġceil",
        "ing"
      ],
      [
        "Ġne",
        "w"
      ],
      [
        "i",
        "pt"
      ],
      [
        "n",
        "ou"
      ],
      [
        "r",
        "um"
      ],
      [
        "Ġ",
        "2"
      ],
      [
        "Ġc",
        "rum"
      ],
      [
        "ce",
        "ipt"
      ],
      [
        "Ġre",
        "ceipt"
      ],
      [
        "Ġan",
        "nou"
      ],
      [
        "Ġbu",
        "ild"
      ],
      [
        "Ġcrum",
        "pled"
      ],
      [
        "Ġannou",
        "nce"
      ],
      [
        "Ġbuild",
        "ing"
      ],
      [
        "Ġf",
        "ly"
      ],
      [
        "Ġa",
        "ge"
      ],
      [
        "b",
        "usy"
      ],
      [
        "at",
        "tle"
      ],
      [
        "Ġp",
        "rivacy"
      ],
      [
        "an",
        "ket"
      ],
      [
        "Ġr",
        "attle"
      ],
      [
        "Ġun",
        "con"
      ],
      [
        "sc",
        "ious"
      ],
      [
        "Ġbl",
        "anket"
      ],
      [
        "Ġrattle",
        "s"
      ],
      [
        "Ġuncon",
        "scious"
      ],
      [
        "Ġa",
        "ffection"
      ],
      [
        "Ġle",
        "g"
      ],
      [
        "Ġstick",
        "ing"
      ],
      [
        "Ġwh",
        "ere"
      ],
      [
        "e",
        "ver"
      ],
      [
        "Ġd",
        "ust"
      ],
      [
        "Ġsp",
        "eck"
      ],
      [
        "Ġm",
        "oth"
      ],
      [
        "Ġsleep",
        "y"
      ],
      [
        "Ġlook",
        "ing"
      ],
      [
        "r",
        "ong"
      ],
      [
        "Ġw",
        "rong"
      ],
      [
        "Ġp",
        "uff"
      ],
      [
        "Ġpuff",
        "ed"
      ],
      [
        "Ġl",
        "ot"
      ],
      [
        "t",
        "ak"
      ],
      [
        "tak",
        "ing"
      ],
      [
        "Ġguest",
        "s"
      ],
      [
        "Ġj",
        "udg"
      ],
      [
        "Ġjudg",
        "ing"
      ],
      [
        "Ġw",
        "oke"
      ],
      [
        "s",
        "m"
      ],
      [
        "Ġdro",
        "pped"
      ],
      [
        "pe",
        "ople"
      ],
      [
        "Ġjump",
        "ed"
      ],
      [
        "Ġto",
        "ok"
      ],
      [
        "Ġw",
        "ere"
      ],
      [
        "m",
        "ore"
      ],
      [
        "s",
        "ome"
      ],
      [
        "Ġs",
        "alm"
      ],
      [
        "some",
        "one"
      ],
      [
        "Ġsalm",
        "on"
      ],
      [
        "Ġrain",
        "ing"
      ],
      [
        "Ġmagnifice",
        "nt"
      ],
      [
        "Ġthink",
        "ing"
      ],
      [
        "a",
        "ke"
      ],
      [
        "d",
        "om"
      ],
      [
        "es",
        "sion"
      ],
      [
        "light",
        "s"
      ],
      [
        "Ġb",
        "oring"
      ],
      [
        "st",
        "ig"
      ],
      [
        "ve",
        "stig"
      ],
      [
        "Ġin",
        "vestig"
      ],
      [
        "Ġinvestig",
        "ating"
      ],
      [
        "g",
        "ive"
      ],
      [
        "Ġs",
        "at"
      ],
      [
        "Ġign",
        "oring"
      ],
      [
        "us",
        "hing"
      ],
      [
        "Ġp",
        "ushing"
      ],
      [
        "w",
        "arm"
      ],
      [
        "Ġst",
        "ory"
      ],
      [
        "r",
        "oke"
      ],
      [
        "Ġb",
        "roke"
      ],
      [
        "Ġh",
        "all"
      ],
      [
        "an",
        "k"
      ],
      [
        "Ġsta",
        "ge"
      ],
      [
        "Ġperform",
        "ance"
      ],
      [
        "Ġhall",
        "way"
      ],
      [
        "us",
        "s"
      ],
      [
        "Ġdi",
        "sc"
      ],
      [
        "Ġdisc",
        "uss"
      ],
      [
        "Ġt",
        "ur"
      ],
      [
        "Ġtur",
        "ned"
      ],
      [
        "gh",
        "est"
      ],
      [
        "Ġshe",
        "lf"
      ],
      [
        "Ġhi",
        "ghest"
      ],
      [
        "Ġm",
        "ar"
      ],
      [
        "Ġc",
        "ute"
      ],
      [
        "Ġbe",
        "ans"
      ],
      [
        "Ġfuzz",
        "iest"
      ],
      [
        "Ġdead",
        "ly"
      ],
      [
        "Ġsile",
        "nt"
      ],
      [
        "Ġmar",
        "vel"
      ],
      [
        "play",
        "time"
      ],
      [
        "ce",
        "ful"
      ],
      [
        "Ġsniff",
        "ing"
      ],
      [
        "Ġgra",
        "ceful"
      ],
      [
        "o",
        "oth"
      ],
      [
        "Ġland",
        "ing"
      ],
      [
        "sm",
        "ooth"
      ],
      [
        "t",
        "ra"
      ],
      [
        "Ġex",
        "tra"
      ],
      [
        "Ġsing",
        "ing"
      ],
      [
        "Ġsuper",
        "ior"
      ],
      [
        "Ġle",
        "ap"
      ],
      [
        "i",
        "ft"
      ],
      [
        "Ġf",
        "ree"
      ],
      [
        "Ġg",
        "ive"
      ],
      [
        "Ġg",
        "ift"
      ],
      [
        "Ġwe",
        "aring"
      ],
      [
        "Ġconsi",
        "der"
      ],
      [
        "Ġfree",
        "ly"
      ],
      [
        "n",
        "owl"
      ],
      [
        "Ġa",
        "ck"
      ],
      [
        "Ġmeow",
        "ing"
      ],
      [
        "nowl",
        "edge"
      ],
      [
        "Ġack",
        "nowledge"
      ],
      [
        "b",
        "ox"
      ],
      [
        "Ġlitter",
        "box"
      ],
      [
        "Ġsp",
        "ray"
      ],
      [
        "Ġbel",
        "ly"
      ],
      [
        "Ġscoop",
        "ing"
      ],
      [
        "n",
        "oth"
      ],
      [
        "Ġf",
        "an"
      ],
      [
        "Ġb",
        "all"
      ],
      [
        "Ġwor",
        "ds"
      ],
      [
        "Ġdemand",
        "ing"
      ],
      [
        "noth",
        "ing"
      ],
      [
        "Ġfan",
        "cy"
      ],
      [
        "Ġball",
        "ad"
      ],
      [
        "Ġeat",
        "en"
      ],
      [
        "ha",
        "ve"
      ],
      [
        "Ġlit",
        "tle"
      ],
      [
        "Ġslow",
        "ly"
      ],
      [
        "'",
        "s"
      ],
      [
        "e",
        "ly"
      ],
      [
        "e",
        "em"
      ],
      [
        "p",
        "let"
      ],
      [
        "Ġs",
        "eem"
      ],
      [
        "Ġw",
        "ar"
      ],
      [
        "Ġl",
        "imp"
      ],
      [
        "om",
        "es"
      ],
      [
        "ic",
        "ally"
      ],
      [
        "Ġbec",
        "omes"
      ],
      [
        "Ġcom",
        "plet"
      ],
      [
        "Ġstrateg",
        "y"
      ],
      [
        "Ġstrateg",
        "ically"
      ],
      [
        "Ġcur",
        "ious"
      ],
      [
        "Ġwar",
        "ned"
      ],
      [
        "Ġcomplet",
        "ely"
      ],
      [
        "ou",
        "rth"
      ],
      [
        "Ġf",
        "ourth"
      ],
      [
        "Ġbet",
        "ray"
      ],
      [
        "Ġbl",
        "ink"
      ],
      [
        "Ġbetray",
        "al"
      ],
      [
        "st",
        "ent"
      ],
      [
        "nd",
        "s"
      ],
      [
        "Ġhe",
        "ld"
      ],
      [
        "Ġconsi",
        "stent"
      ],
      [
        "Ġdeli",
        "very"
      ],
      [
        "Ġstr",
        "ange"
      ],
      [
        "i",
        "us"
      ],
      [
        "o",
        "ved"
      ],
      [
        "en",
        "ius"
      ],
      [
        "Ġg",
        "enius"
      ],
      [
        "Ġbel",
        "oved"
      ],
      [
        "o",
        "ff"
      ],
      [
        "Ġp",
        "ound"
      ],
      [
        "Ġfur",
        "ious"
      ],
      [
        "Ġall",
        "ow"
      ],
      [
        "Ġget",
        "s"
      ],
      [
        "Ġlift",
        "ed"
      ],
      [
        "Ġhold",
        "ing"
      ],
      [
        "Ġexact",
        "ly"
      ],
      [
        "Ġhalf",
        "way"
      ],
      [
        "Ġpound",
        "s"
      ],
      [
        "m",
        "orning"
      ],
      [
        "n",
        "ey"
      ],
      [
        "Ġe",
        "pic"
      ],
      [
        "Ġj",
        "our"
      ],
      [
        "Ġjour",
        "ney"
      ],
      [
        "Ġd",
        "rive"
      ],
      [
        "ri",
        "ved"
      ],
      [
        "Ġar",
        "rived"
      ],
      [
        "n",
        "ate"
      ],
      [
        "Ġs",
        "end"
      ],
      [
        "Ġbe",
        "fore"
      ],
      [
        "Ġal",
        "ter"
      ],
      [
        "Ġbox",
        "es"
      ],
      [
        "Ġgr",
        "ab"
      ],
      [
        "Ġstick",
        "y"
      ],
      [
        "Ġtouch",
        "ed"
      ],
      [
        "Ġalter",
        "nate"
      ],
      [
        "b",
        "o"
      ],
      [
        "c",
        "ip"
      ],
      [
        "y",
        "bo"
      ],
      [
        "nd",
        "at"
      ],
      [
        "end",
        "ance"
      ],
      [
        "in",
        "cip"
      ],
      [
        "Ġdo",
        "g"
      ],
      [
        "Ġso",
        "on"
      ],
      [
        "Ġyour",
        "self"
      ],
      [
        "Ġma",
        "ndat"
      ],
      [
        "Ġatt",
        "endance"
      ],
      [
        "Ġnight",
        "ly"
      ],
      [
        "Ġpr",
        "incip"
      ],
      [
        "Ġke",
        "ybo"
      ],
      [
        "Ġmandat",
        "ory"
      ],
      [
        "Ġprincip",
        "le"
      ],
      [
        "Ġkeybo",
        "ard"
      ],
      [
        "h",
        "ey"
      ],
      [
        "Ġp",
        "ap"
      ],
      [
        "ll",
        "ow"
      ],
      [
        "Ġr",
        "ather"
      ],
      [
        "Ġsp",
        "ring"
      ],
      [
        "ak",
        "ed"
      ],
      [
        "Ġbath",
        "room"
      ],
      [
        "Ġpe",
        "aked"
      ],
      [
        "Ġfo",
        "llow"
      ],
      [
        "Ġthr",
        "ow"
      ],
      [
        "Ġclos",
        "er"
      ],
      [
        "Ġpack",
        "ing"
      ],
      [
        "Ġend",
        "less"
      ],
      [
        "Ġpap",
        "er"
      ],
      [
        "k",
        "in"
      ],
      [
        "n",
        "el"
      ],
      [
        "nd",
        "oor"
      ],
      [
        "Ġi",
        "ndoor"
      ],
      [
        "nt",
        "ion"
      ],
      [
        "Ġs",
        "kin"
      ],
      [
        "Ġyou",
        "ng"
      ],
      [
        "Ġme",
        "ntion"
      ],
      [
        "an",
        "nel"
      ],
      [
        "ar",
        "ity"
      ],
      [
        "Ġch",
        "annel"
      ],
      [
        "Ġcl",
        "ock"
      ],
      [
        "Ġcl",
        "arity"
      ],
      [
        "Ġgr",
        "udg"
      ],
      [
        "Ġbowl",
        "s"
      ],
      [
        "Ġrumb",
        "le"
      ],
      [
        "Ġskin",
        "ny"
      ],
      [
        "Ġmention",
        "ing"
      ],
      [
        "Ġgrudg",
        "es"
      ],
      [
        "n",
        "s"
      ],
      [
        "v",
        "ation"
      ],
      [
        "w",
        "ake"
      ],
      [
        "Ġa",
        "wake"
      ],
      [
        "Ġf",
        "li"
      ],
      [
        "Ġh",
        "id"
      ],
      [
        "le",
        "vation"
      ],
      [
        "Ġmom",
        "ent"
      ],
      [
        "oo",
        "se"
      ],
      [
        "Ġe",
        "levation"
      ],
      [
        "ver",
        "s"
      ],
      [
        "ck",
        "ed"
      ],
      [
        "Ġch",
        "oose"
      ],
      [
        "Ġwarm",
        "est"
      ],
      [
        "Ġma",
        "kes"
      ],
      [
        "Ġear",
        "ns"
      ],
      [
        "Ġsit",
        "s"
      ],
      [
        "Ġsit",
        "ting"
      ],
      [
        "Ġfit",
        "s"
      ],
      [
        "Ġlea",
        "ving"
      ],
      [
        "Ġdeli",
        "vers"
      ],
      [
        "Ġrele",
        "ase"
      ],
      [
        "Ġgreet",
        "ed"
      ],
      [
        "Ġconse",
        "nt"
      ],
      [
        "Ġfli",
        "cked"
      ],
      [
        "i",
        "nto"
      ],
      [
        "i",
        "vity"
      ],
      [
        "s",
        "y"
      ],
      [
        "t",
        "em"
      ],
      [
        "Ġsta",
        "tem"
      ],
      [
        "Ġoff",
        "ici"
      ],
      [
        "Ġno",
        "sy"
      ],
      [
        "Ġcon",
        "cept"
      ],
      [
        "Ġear",
        "ly"
      ],
      [
        "Ġact",
        "ivity"
      ],
      [
        "Ġthr",
        "ough"
      ],
      [
        "Ġstatem",
        "ent"
      ],
      [
        "Ġoffici",
        "al"
      ],
      [
        "c",
        "i"
      ],
      [
        "d",
        "rink"
      ],
      [
        "e",
        "ars"
      ],
      [
        "w",
        "ed"
      ],
      [
        "Ġa",
        "imed"
      ],
      [
        "at",
        "tend"
      ],
      [
        "Ġc",
        "are"
      ],
      [
        "Ġb",
        "are"
      ],
      [
        "Ġo",
        "wed"
      ],
      [
        "Ġcan",
        "s"
      ],
      [
        "Ġy",
        "ears"
      ],
      [
        "ain",
        "ed"
      ],
      [
        "Ġun",
        "attend"
      ],
      [
        "Ġpre",
        "ci"
      ],
      [
        "Ġtr",
        "ained"
      ],
      [
        "Ġminim",
        "um"
      ],
      [
        "ful",
        "ly"
      ],
      [
        "Ġjo",
        "b"
      ],
      [
        "Ġrequ",
        "ested"
      ],
      [
        "Ġcare",
        "fully"
      ],
      [
        "Ġunattend",
        "ed"
      ],
      [
        "Ġpreci",
        "sion"
      ],
      [
        "c",
        "ed"
      ],
      [
        "d",
        "est"
      ],
      [
        "i",
        "ll"
      ],
      [
        "w",
        "at"
      ],
      [
        "Ġs",
        "wat"
      ],
      [
        "an",
        "ced"
      ],
      [
        "Ġfor",
        "ward"
      ],
      [
        "Ġso",
        "ft"
      ],
      [
        "Ġfe",
        "ll"
      ],
      [
        "Ġli",
        "ve"
      ],
      [
        "Ġmo",
        "dest"
      ],
      [
        "Ġk",
        "ill"
      ],
      [
        "Ġred",
        "ire"
      ],
      [
        "Ġhairball",
        "s"
      ],
      [
        "Ġbal",
        "anced"
      ],
      [
        "Ġkill",
        "ed"
      ],
      [
        "Ġredire",
        "ct"
      ],
      [
        "b",
        "id"
      ],
      [
        "d",
        "en"
      ],
      [
        "l",
        "ing"
      ],
      [
        "r",
        "it"
      ],
      [
        "r",
        "age"
      ],
      [
        "st",
        "ory"
      ],
      [
        "Ġa",
        "th"
      ],
      [
        "Ġm",
        "ark"
      ],
      [
        "ar",
        "ds"
      ],
      [
        "Ġfor",
        "bid"
      ],
      [
        "Ġter",
        "rit"
      ],
      [
        "Ġout",
        "rage"
      ],
      [
        "let",
        "ic"
      ],
      [
        "Ġhi",
        "story"
      ],
      [
        "Ġfeel",
        "ing"
      ],
      [
        "Ġscoop",
        "ed"
      ],
      [
        "Ġstand",
        "ards"
      ],
      [
        "Ġrumb",
        "ling"
      ],
      [
        "Ġath",
        "letic"
      ],
      [
        "Ġforbid",
        "den"
      ],
      [
        "Ġterrit",
        "ory"
      ],
      [
        "b",
        "ack"
      ],
      [
        "c",
        "atch"
      ],
      [
        "l",
        "it"
      ],
      [
        "Ġs",
        "ide"
      ],
      [
        "Ġfeed",
        "back"
      ],
      [
        "ic",
        "s"
      ],
      [
        "Ġpur",
        "r"
      ],
      [
        "Ġbig",
        "ger"
      ],
      [
        "Ġyell",
        "s"
      ],
      [
        "Ġact",
        "ive"
      ],
      [
        "Ġpo",
        "lit"
      ],
      [
        "Ġpersonal",
        "ity"
      ],
      [
        "Ġtax",
        "es"
      ],
      [
        "Ġclos",
        "est"
      ],
      [
        "Ġjo",
        "y"
      ],
      [
        "Ġnam",
        "es"
      ],
      [
        "mit",
        "ting"
      ],
      [
        "Ġad",
        "mitting"
      ],
      [
        "Ġpolit",
        "ics"
      ],
      [
        "o",
        "nt"
      ],
      [
        "st",
        "er"
      ],
      [
        "Ġt",
        "in"
      ],
      [
        "Ġt",
        "ry"
      ],
      [
        "Ġm",
        "on"
      ],
      [
        "Ġm",
        "orning"
      ],
      [
        "as",
        "ed"
      ],
      [
        "Ġl",
        "umber"
      ],
      [
        "Ġto",
        "ward"
      ],
      [
        "ere",
        "nt"
      ],
      [
        "Ġdi",
        "ff"
      ],
      [
        "Ġfr",
        "ont"
      ],
      [
        "ell",
        "ig"
      ],
      [
        "Ġpl",
        "an"
      ],
      [
        "Ġv",
        "anis"
      ],
      [
        "Ġmagnifice",
        "ntly"
      ],
      [
        "Ġrele",
        "ased"
      ],
      [
        "Ġnam",
        "ed"
      ],
      [
        "Ġint",
        "ellig"
      ],
      [
        "Ġtin",
        "y"
      ],
      [
        "Ġmon",
        "ster"
      ],
      [
        "Ġdiff",
        "erent"
      ],
      [
        "Ġvanis",
        "h"
      ],
      [
        "Ġintellig",
        "ence"
      ],
      [
        "M",
        "O"
      ],
      [
        "d",
        "es"
      ],
      [
        "g",
        "en"
      ],
      [
        "m",
        "ember"
      ],
      [
        "o",
        "pped"
      ],
      [
        "Ġ",
        "MO"
      ],
      [
        "Ġt",
        "it"
      ],
      [
        "er",
        "day"
      ],
      [
        "er",
        "gen"
      ],
      [
        "Ġf",
        "is"
      ],
      [
        "Ġf",
        "our"
      ],
      [
        "re",
        "member"
      ],
      [
        "si",
        "des"
      ],
      [
        "Ġd",
        "eci"
      ],
      [
        "le",
        "s"
      ],
      [
        "Ġp",
        "atch"
      ],
      [
        "est",
        "erday"
      ],
      [
        "Ġli",
        "sten"
      ],
      [
        "ce",
        "nt"
      ],
      [
        "Ġbe",
        "sides"
      ],
      [
        "Ġst",
        "opped"
      ],
      [
        "Ġy",
        "esterday"
      ],
      [
        "Ġper",
        "cent"
      ],
      [
        "Ġget",
        "ting"
      ],
      [
        "Ġwhen",
        "ever"
      ],
      [
        "Ġwa",
        "ve"
      ],
      [
        "Ġeff",
        "ici"
      ],
      [
        "Ġeat",
        "s"
      ],
      [
        "Ġem",
        "ergen"
      ],
      [
        "Ġsile",
        "ntly"
      ],
      [
        "Ġtwitch",
        "ing"
      ],
      [
        "ĠMO",
        "M"
      ],
      [
        "Ġtit",
        "les"
      ],
      [
        "Ġfis",
        "h"
      ],
      [
        "Ġdeci",
        "sion"
      ],
      [
        "Ġlisten",
        "ing"
      ],
      [
        "Ġeffici",
        "ent"
      ],
      [
        "Ġemergen",
        "cy"
      ],
      [
        "a",
        "v"
      ],
      [
        "f",
        "or"
      ],
      [
        "g",
        "i"
      ],
      [
        "t",
        "en"
      ],
      [
        "v",
        "able"
      ],
      [
        "x",
        "t"
      ],
      [
        "Ġi",
        "de"
      ],
      [
        "Ġh",
        "ot"
      ],
      [
        "Ġne",
        "xt"
      ],
      [
        "um",
        "e"
      ],
      [
        "Ġany",
        "more"
      ],
      [
        "Ġhe",
        "av"
      ],
      [
        "Ġpl",
        "ace"
      ],
      [
        "Ġv",
        "ol"
      ],
      [
        "Ġcom",
        "mit"
      ],
      [
        "Ġun",
        "for"
      ],
      [
        "Ġsun",
        "light"
      ],
      [
        "Ġco",
        "als"
      ],
      [
        "Ġforgot",
        "ten"
      ],
      [
        "gi",
        "vable"
      ],
      [
        "Ġide",
        "al"
      ],
      [
        "Ġheav",
        "y"
      ],
      [
        "Ġvol",
        "ume"
      ],
      [
        "Ġcommit",
        "ment"
      ],
      [
        "Ġunfor",
        "givable"
      ],
      [
        "m",
        "in"
      ],
      [
        "Ġg",
        "am"
      ],
      [
        "wh",
        "en"
      ],
      [
        "Ġsta",
        "min"
      ],
      [
        "Ġthere",
        "fore"
      ],
      [
        "Ġyell",
        "ed"
      ],
      [
        "Ġcont",
        "ent"
      ],
      [
        "Ġgam",
        "es"
      ],
      [
        "Ġstamin",
        "a"
      ],
      [
        "'",
        "t"
      ],
      [
        "h",
        "o"
      ],
      [
        "u",
        "th"
      ],
      [
        "im",
        "es"
      ],
      [
        "Ġa",
        "uth"
      ],
      [
        "Ġm",
        "ath"
      ],
      [
        "Ġs",
        "om"
      ],
      [
        "in",
        "et"
      ],
      [
        "Ġd",
        "on"
      ],
      [
        "Ġc",
        "ab"
      ],
      [
        "or",
        "ity"
      ],
      [
        "le",
        "ase"
      ],
      [
        "Ġp",
        "lease"
      ],
      [
        "Ġg",
        "ho"
      ],
      [
        "Ġmy",
        "self"
      ],
      [
        "Ġe",
        "nter"
      ],
      [
        "et",
        "imes"
      ],
      [
        "Ġin",
        "ch"
      ],
      [
        "Ġr",
        "ank"
      ],
      [
        "Ġpick",
        "ing"
      ],
      [
        "Ġauth",
        "ority"
      ],
      [
        "Ġsom",
        "etimes"
      ],
      [
        "Ġcab",
        "inet"
      ],
      [
        "Ġgho",
        "st"
      ],
      [
        "Ġrank",
        "ing"
      ],
      [
        "f",
        "in"
      ],
      [
        "i",
        "red"
      ],
      [
        "p",
        "et"
      ],
      [
        "Ġ",
        "3"
      ],
      [
        "Ġt",
        "able"
      ],
      [
        "Ġt",
        "ired"
      ],
      [
        "Ġp",
        "ar"
      ],
      [
        "Ġo",
        "wn"
      ],
      [
        "Ġin",
        "fin"
      ],
      [
        "qu",
        "ence"
      ],
      [
        "Ġj",
        "ud"
      ],
      [
        "ad",
        "ise"
      ],
      [
        "Ġsome",
        "where"
      ],
      [
        "Ġfi",
        "x"
      ],
      [
        "Ġcar",
        "pet"
      ],
      [
        "Ġknock",
        "ing"
      ],
      [
        "sh",
        "ould"
      ],
      [
        "Ġcheck",
        "up"
      ],
      [
        "Ġgreet",
        "ing"
      ],
      [
        "Ġconse",
        "quence"
      ],
      [
        "Ġint",
        "end"
      ],
      [
        "Ġpar",
        "adise"
      ],
      [
        "Ġinfin",
        "ite"
      ],
      [
        "Ġjud",
        "ge"
      ],
      [
        "c",
        "alm"
      ],
      [
        "o",
        "ic"
      ],
      [
        "Ġnot",
        "es"
      ],
      [
        "Ġbe",
        "aring"
      ],
      [
        "Ġch",
        "oic"
      ],
      [
        "Ġwatch",
        "ed"
      ],
      [
        "Ġsun",
        "ny"
      ],
      [
        "Ġlo",
        "ad"
      ],
      [
        "Ġchoic",
        "es"
      ],
      [
        "f",
        "i"
      ],
      [
        "m",
        "un"
      ],
      [
        "n",
        "ight"
      ],
      [
        "Ġ",
        "edge"
      ],
      [
        "Ġt",
        "ested"
      ],
      [
        "Ġs",
        "we"
      ],
      [
        "re",
        "ntly"
      ],
      [
        "Ġw",
        "on"
      ],
      [
        "Ġl",
        "ow"
      ],
      [
        "al",
        "th"
      ],
      [
        "Ġwi",
        "fi"
      ],
      [
        "Ġe",
        "sc"
      ],
      [
        "Ġha",
        "d"
      ],
      [
        "ap",
        "ing"
      ],
      [
        "Ġcan",
        "cel"
      ],
      [
        "ic",
        "ating"
      ],
      [
        "Ġhe",
        "alth"
      ],
      [
        "Ġcom",
        "mun"
      ],
      [
        "Ġdream",
        "s"
      ],
      [
        "good",
        "night"
      ],
      [
        "Ġcur",
        "rently"
      ],
      [
        "Ġswe",
        "et"
      ],
      [
        "Ġesc",
        "aping"
      ],
      [
        "Ġcancel",
        "ed"
      ],
      [
        "Ġhealth",
        "y"
      ],
      [
        "Ġcommun",
        "icating"
      ],
      [
        "c",
        "ise"
      ],
      [
        "e",
        "w"
      ],
      [
        "g",
        "in"
      ],
      [
        "m",
        "an"
      ],
      [
        "er",
        "cise"
      ],
      [
        "Ġs",
        "en"
      ],
      [
        "Ġam",
        "ate"
      ],
      [
        "ur",
        "s"
      ],
      [
        "Ġbe",
        "gin"
      ],
      [
        "Ġma",
        "il"
      ],
      [
        "ort",
        "able"
      ],
      [
        "Ġbu",
        "il"
      ],
      [
        "Ġcomf",
        "ortable"
      ],
      [
        "Ġshi",
        "ft"
      ],
      [
        "Ġsen",
        "ior"
      ],
      [
        "Ġamate",
        "urs"
      ],
      [
        "Ġmail",
        "man"
      ],
      [
        "Ġbuil",
        "t"
      ],
      [
        "re",
        "es"
      ],
      [
        "ep",
        "s"
      ],
      [
        "Ġag",
        "rees"
      ],
      [
        "Ġke",
        "eps"
      ],
      [
        "m",
        "ire"
      ],
      [
        "Ġs",
        "el"
      ],
      [
        "Ġexhaust",
        "ed"
      ],
      [
        "Ġpack",
        "age"
      ],
      [
        "Ġad",
        "mire"
      ],
      [
        "Ġsquee",
        "ze"
      ],
      [
        "Ġsel",
        "f"
      ],
      [
        "y",
        "st"
      ],
      [
        "Ġs",
        "yst"
      ],
      [
        "ot",
        "est"
      ],
      [
        "Ġli",
        "kes"
      ],
      [
        "Ġwith",
        "out"
      ],
      [
        "Ġfi",
        "ll"
      ],
      [
        "Ġpr",
        "otest"
      ],
      [
        "Ġsl",
        "id"
      ],
      [
        "Ġwork",
        "s"
      ],
      [
        "Ġsyst",
        "em"
      ],
      [
        "a",
        "x"
      ],
      [
        "l",
        "ax"
      ],
      [
        "Ġre",
        "lax"
      ],
      [
        "Ġco",
        "de"
      ],
      [
        "Ġdro",
        "p"
      ],
      [
        "Ġm",
        "ight"
      ],
      [
        "on",
        "ed"
      ],
      [
        "Ġb",
        "oned"
      ],
      [
        "or",
        "iously"
      ],
      [
        "al",
        "e"
      ],
      [
        "le",
        "m"
      ],
      [
        "Ġsc",
        "ale"
      ],
      [
        "Ġli",
        "ar"
      ],
      [
        "li",
        "cy"
      ],
      [
        "ri",
        "nt"
      ],
      [
        "Ġsp",
        "rint"
      ],
      [
        "Ġpo",
        "licy"
      ],
      [
        "Ġgl",
        "oriously"
      ],
      [
        "Ġprob",
        "lem"
      ],
      [
        "Ġnumber",
        "s"
      ],
      [
        "Ġcont",
        "ain"
      ],
      [
        "Ġn",
        "at"
      ],
      [
        "Ġc",
        "all"
      ],
      [
        "Ġh",
        "ate"
      ],
      [
        "ur",
        "ally"
      ],
      [
        "Ġsta",
        "re"
      ],
      [
        "Ġexcept",
        "ion"
      ],
      [
        "Ġnat",
        "urally"
      ],
      [
        "Ġcall",
        "ed"
      ],
      [
        "c",
        "c"
      ],
      [
        "c",
        "end"
      ],
      [
        "z",
        "es"
      ],
      [
        "as",
        "ion"
      ],
      [
        "Ġo",
        "h"
      ],
      [
        "Ġo",
        "cc"
      ],
      [
        "Ġas",
        "cend"
      ],
      [
        "Ġmeaning",
        "less"
      ],
      [
        "Ġsquee",
        "zes"
      ],
      [
        "asion",
        "ally"
      ],
      [
        "Ġocc",
        "asionally"
      ],
      [
        "us",
        "ing"
      ],
      [
        "Ġfor",
        "m"
      ],
      [
        "Ġre",
        "spect"
      ],
      [
        "Ġtim",
        "ing"
      ],
      [
        "Ġclean",
        "ed"
      ],
      [
        "Ġconf",
        "using"
      ],
      [
        "g",
        "r"
      ],
      [
        "m",
        "et"
      ],
      [
        "o",
        "h"
      ],
      [
        "Ġg",
        "our"
      ],
      [
        "Ġat",
        "e"
      ],
      [
        "is",
        "on"
      ],
      [
        "Ġag",
        "o"
      ],
      [
        "Ġpo",
        "ison"
      ],
      [
        "gr",
        "inch"
      ],
      [
        "Ġgour",
        "met"
      ],
      [
        "Ġh",
        "ello"
      ],
      [
        "Ġr",
        "ight"
      ],
      [
        "b",
        "stant"
      ],
      [
        "i",
        "al"
      ],
      [
        "k",
        "y"
      ],
      [
        "u",
        "bstant"
      ],
      [
        "Ġs",
        "ubstant"
      ],
      [
        "Ġw",
        "ell"
      ],
      [
        "Ġc",
        "hon"
      ],
      [
        "Ġfur",
        "red"
      ],
      [
        "Ġsubstant",
        "ial"
      ],
      [
        "Ġchon",
        "ky"
      ],
      [
        "a",
        "ut"
      ],
      [
        "i",
        "nt"
      ],
      [
        "s",
        "dom"
      ],
      [
        "en",
        "ance"
      ],
      [
        "Ġwi",
        "sdom"
      ],
      [
        "Ġsa",
        "fe"
      ],
      [
        "Ġbe",
        "aut"
      ],
      [
        "Ġre",
        "ap"
      ],
      [
        "Ġgo",
        "al"
      ],
      [
        "Ġma",
        "int"
      ],
      [
        "Ġbu",
        "ry"
      ],
      [
        "if",
        "ul"
      ],
      [
        "Ġsnack",
        "s"
      ],
      [
        "pe",
        "ar"
      ],
      [
        "Ġrequ",
        "ire"
      ],
      [
        "Ġbal",
        "ance"
      ],
      [
        "Ġbeaut",
        "iful"
      ],
      [
        "Ġreap",
        "pear"
      ],
      [
        "Ġmaint",
        "enance"
      ],
      [
        "Ġbeautiful",
        "ly"
      ],
      [
        "Ġar",
        "rive"
      ],
      [
        "Ġpet",
        "s"
      ],
      [
        "Ġarrive",
        "s"
      ],
      [
        "i",
        "ate"
      ],
      [
        "m",
        "ed"
      ],
      [
        "Ġ",
        "im"
      ],
      [
        "Ġla",
        "y"
      ],
      [
        "Ġme",
        "ss"
      ],
      [
        "iate",
        "ly"
      ],
      [
        "med",
        "iately"
      ],
      [
        "Ġim",
        "mediately"
      ],
      [
        "Ġwarm",
        "er"
      ],
      [
        "Ġcar",
        "ry"
      ],
      [
        "Ġs",
        "uff"
      ],
      [
        "Ġsuff",
        "er"
      ],
      [
        "u",
        "ck"
      ],
      [
        "assi",
        "c"
      ],
      [
        "Ġcl",
        "assic"
      ],
      [
        "Ġst",
        "uck"
      ],
      [
        "fe",
        "ed"
      ],
      [
        "Ġpretend",
        "ed"
      ],
      [
        "m",
        "usic"
      ],
      [
        "o",
        "y"
      ],
      [
        "r",
        "ow"
      ],
      [
        "Ġb",
        "oy"
      ],
      [
        "th",
        "row"
      ],
      [
        "Ġa",
        "li"
      ],
      [
        "Ġthe",
        "se"
      ],
      [
        "Ġlaz",
        "iest"
      ],
      [
        "Ġfloof",
        "iest"
      ],
      [
        "Ġpe",
        "ace"
      ],
      [
        "Ġconf",
        "ession"
      ],
      [
        "Ġali",
        "ve"
      ],
      [
        "Ġth",
        "under"
      ],
      [
        "Ġlick",
        "able"
      ],
      [
        "Ġli",
        "ght"
      ],
      [
        "Ġlight",
        "s"
      ],
      [
        "Ġal",
        "arm"
      ],
      [
        "Ġsm",
        "oke"
      ],
      [
        "k",
        "s"
      ],
      [
        "w",
        "or"
      ],
      [
        "re",
        "wor"
      ],
      [
        "Ġl",
        "et"
      ],
      [
        "Ġfi",
        "rewor"
      ],
      [
        "Ġtru",
        "ck"
      ],
      [
        "Ġfirewor",
        "ks"
      ],
      [
        "st",
        "orm"
      ],
      [
        "Ġa",
        "rt"
      ],
      [
        "Ġk",
        "ick"
      ],
      [
        "Ġal",
        "so"
      ],
      [
        "Ġkick",
        "ed"
      ],
      [
        "Ġs",
        "imp"
      ],
      [
        "Ġsh",
        "ould"
      ],
      [
        "Ġsimp",
        "le"
      ],
      [
        "end",
        "er"
      ],
      [
        "Ġbored",
        "om"
      ],
      [
        "Ġbl",
        "ender"
      ],
      [
        "Ġsec",
        "ret"
      ],
      [
        "b",
        "ar"
      ],
      [
        "r",
        "assi"
      ],
      [
        "v",
        "en"
      ],
      [
        "le",
        "ct"
      ],
      [
        "Ġo",
        "ven"
      ],
      [
        "Ġref",
        "lect"
      ],
      [
        "Ġem",
        "bar"
      ],
      [
        "rassi",
        "ng"
      ],
      [
        "Ġreflect",
        "ion"
      ],
      [
        "Ġembar",
        "rassing"
      ],
      [
        "Ġha",
        "nds"
      ],
      [
        "Ġsm",
        "all"
      ],
      [
        "Ġsp",
        "ot"
      ],
      [
        "Ġex",
        "ercise"
      ],
      [
        "Ġthan",
        "k"
      ],
      [
        "Ġeat",
        "ing"
      ],
      [
        "y",
        "es"
      ],
      [
        "l",
        "ong"
      ],
      [
        "Ġto",
        "p"
      ],
      [
        "Ġw",
        "et"
      ],
      [
        "Ġst",
        "uff"
      ],
      [
        "Ġwhat",
        "ever"
      ],
      [
        "Ġch",
        "ick"
      ],
      [
        "Ġchick",
        "en"
      ],
      [
        "ch",
        "uru"
      ],
      [
        "f",
        "ession"
      ],
      [
        "con",
        "fession"
      ],
      [
        "i",
        "at"
      ],
      [
        "Ġr",
        "ad"
      ],
      [
        "iat",
        "or"
      ],
      [
        "Ġrad",
        "iator"
      ],
      [
        "w",
        "is"
      ],
      [
        "wis",
        "dom"
      ],
      [
        "in",
        "ion"
      ],
      [
        "Ġop",
        "inion"
      ],
      [
        "g",
        "o"
      ],
      [
        "j",
        "ust"
      ],
      [
        "t",
        "alk"
      ],
      [
        "c",
        "ret"
      ],
      [
        "se",
        "cret"
      ],
      [
        "Ġthought",
        "s"
      ],
      [
        "p",
        "ri"
      ],
      [
        "s",
        "ur"
      ],
      [
        "sh",
        "are"
      ],
      [
        "pri",
        "se"
      ],
      [
        "sur",
        "prise"
      ],
      [
        "e",
        "rt"
      ],
      [
        "i",
        "nd"
      ],
      [
        "Ġm",
        "ind"
      ],
      [
        "ent",
        "ert"
      ],
      [
        "entert",
        "ain"
      ],
      [
        "e",
        "ak"
      ],
      [
        "sp",
        "eak"
      ],
      [
        "ha",
        "nds"
      ],
      [
        "Ġwor",
        "ld"
      ],
      [
        "a",
        "ffection"
      ],
      [
        "th",
        "is"
      ],
      [
        "Ġj",
        "oke"
      ],
      [
        "s",
        "leep"
      ],
      [
        "sleep",
        "ing"
      ],
      [
        "the",
        "se"
      ],
      [
        "Ġtri",
        "ed"
      ],
      [
        "f",
        "r"
      ],
      [
        "fr",
        "om"
      ],
      [
        "m",
        "ake"
      ],
      [
        "u",
        "gh"
      ],
      [
        "si",
        "ll"
      ],
      [
        "Ġla",
        "ugh"
      ],
      [
        "Ġwindow",
        "sill"
      ],
      [
        "e",
        "x"
      ],
      [
        "ex",
        "ercise"
      ],
      [
        "h",
        "k"
      ],
      [
        "r",
        "ain"
      ],
      [
        "hh",
        "hk"
      ],
      [
        "o",
        "day"
      ],
      [
        "s",
        "onny"
      ],
      [
        "t",
        "oday"
      ],
      [
        "th",
        "ank"
      ],
      [
        "ch",
        "ase"
      ],
      [
        "wh",
        "ile"
      ],
      [
        "sm",
        "all"
      ],
      [
        "p",
        "ut"
      ],
      [
        "p",
        "rivacy"
      ],
      [
        "ch",
        "ild"
      ],
      [
        "child",
        "ren"
      ],
      [
        "b",
        "ored"
      ],
      [
        "any",
        "one"
      ],
      [
        "bored",
        "om"
      ],
      [
        "i",
        "si"
      ],
      [
        "t",
        "or"
      ],
      [
        "Ġv",
        "isi"
      ],
      [
        "zoom",
        "ies"
      ],
      [
        "Ġvisi",
        "tor"
      ],
      [
        "op",
        "en"
      ],
      [
        "Ġlook",
        "ed"
      ],
      [
        "b",
        "ath"
      ],
      [
        "be",
        "ing"
      ],
      [
        "Ġta",
        "il"
      ],
      [
        "k",
        "er"
      ],
      [
        "Ġwh",
        "is"
      ],
      [
        "Ġco",
        "at"
      ],
      [
        "ker",
        "s"
      ],
      [
        "Ġwhis",
        "kers"
      ],
      [
        "Ġtr",
        "ap"
      ],
      [
        "what",
        "ever"
      ]
    ]
  }
}